
/* Copyright 2019 The TensorFlow Authors. All Rights Reserved.

Licensed under the Apache License, Version 2.0 (the "License");
you may not use this file except in compliance with the License.
You may obtain a copy of the License at

    http://www.apache.org/licenses/LICENSE-2.0

Unless required by applicable law or agreed to in writing, software
distributed under the License is distributed on an "AS IS" BASIS,
WITHOUT WARRANTIES OR CONDITIONS OF ANY KIND, either express or implied.
See the License for the specific language governing permissions and
limitations under the License.
==============================================================================*/

// This is a TensorFlow Lite model file that has been converted into a C data
// array using the tensorflow.lite.util.convert_bytes_to_c_source() function.
// This form is useful for compiling into a binary for devices that don't have a
// file system.

#include "emotion_detect_model_data.h"

// Bytes pasted from model.h file
// Keep model aligned to 8 bytes to guarantee aligned 64-bit accesses.
alignas(8) const unsigned char g_emotion_detect_model_data[] = {0x1c, 0x00, 0x00, 0x00, 0x54, 0x46, 0x4c, 0x33, 0x14, 0x00, 0x20, 0x00,
  0x1c, 0x00, 0x18, 0x00, 0x14, 0x00, 0x10, 0x00, 0x0c, 0x00, 0x00, 0x00,
  0x08, 0x00, 0x04, 0x00, 0x14, 0x00, 0x00, 0x00, 0x1c, 0x00, 0x00, 0x00,
  0x94, 0x00, 0x00, 0x00, 0xec, 0x00, 0x00, 0x00, 0x54, 0x18, 0x00, 0x00,
  0x64, 0x18, 0x00, 0x00, 0xf0, 0x32, 0x00, 0x00, 0x03, 0x00, 0x00, 0x00,
  0x01, 0x00, 0x00, 0x00, 0x04, 0x00, 0x00, 0x00, 0x8a, 0xe6, 0xff, 0xff,
  0x0c, 0x00, 0x00, 0x00, 0x1c, 0x00, 0x00, 0x00, 0x38, 0x00, 0x00, 0x00,
  0x0f, 0x00, 0x00, 0x00, 0x73, 0x65, 0x72, 0x76, 0x69, 0x6e, 0x67, 0x5f,
  0x64, 0x65, 0x66, 0x61, 0x75, 0x6c, 0x74, 0x00, 0x01, 0x00, 0x00, 0x00,
  0x04, 0x00, 0x00, 0x00, 0x88, 0xff, 0xff, 0xff, 0x21, 0x00, 0x00, 0x00,
  0x04, 0x00, 0x00, 0x00, 0x07, 0x00, 0x00, 0x00, 0x64, 0x65, 0x6e, 0x73,
  0x65, 0x5f, 0x35, 0x00, 0x01, 0x00, 0x00, 0x00, 0x04, 0x00, 0x00, 0x00,
  0x6a, 0xe7, 0xff, 0xff, 0x04, 0x00, 0x00, 0x00, 0x18, 0x00, 0x00, 0x00,
  0x64, 0x65, 0x70, 0x74, 0x68, 0x77, 0x69, 0x73, 0x65, 0x5f, 0x63, 0x6f,
  0x6e, 0x76, 0x32, 0x64, 0x5f, 0x32, 0x5f, 0x69, 0x6e, 0x70, 0x75, 0x74,
  0x00, 0x00, 0x00, 0x00, 0x02, 0x00, 0x00, 0x00, 0x34, 0x00, 0x00, 0x00,
  0x04, 0x00, 0x00, 0x00, 0xdc, 0xff, 0xff, 0xff, 0x24, 0x00, 0x00, 0x00,
  0x04, 0x00, 0x00, 0x00, 0x13, 0x00, 0x00, 0x00, 0x43, 0x4f, 0x4e, 0x56,
  0x45, 0x52, 0x53, 0x49, 0x4f, 0x4e, 0x5f, 0x4d, 0x45, 0x54, 0x41, 0x44,
  0x41, 0x54, 0x41, 0x00, 0x08, 0x00, 0x0c, 0x00, 0x08, 0x00, 0x04, 0x00,
  0x08, 0x00, 0x00, 0x00, 0x23, 0x00, 0x00, 0x00, 0x04, 0x00, 0x00, 0x00,
  0x13, 0x00, 0x00, 0x00, 0x6d, 0x69, 0x6e, 0x5f, 0x72, 0x75, 0x6e, 0x74,
  0x69, 0x6d, 0x65, 0x5f, 0x76, 0x65, 0x72, 0x73, 0x69, 0x6f, 0x6e, 0x00,
  0x25, 0x00, 0x00, 0x00, 0x64, 0x17, 0x00, 0x00, 0x5c, 0x17, 0x00, 0x00,
  0x48, 0x17, 0x00, 0x00, 0x14, 0x17, 0x00, 0x00, 0xfc, 0x16, 0x00, 0x00,
  0xe4, 0x16, 0x00, 0x00, 0xc4, 0x16, 0x00, 0x00, 0xa4, 0x16, 0x00, 0x00,
  0x74, 0x16, 0x00, 0x00, 0x44, 0x16, 0x00, 0x00, 0xec, 0x15, 0x00, 0x00,
  0x4c, 0x15, 0x00, 0x00, 0x1c, 0x14, 0x00, 0x00, 0xcc, 0x11, 0x00, 0x00,
  0x3c, 0x0d, 0x00, 0x00, 0x2c, 0x04, 0x00, 0x00, 0x14, 0x04, 0x00, 0x00,
  0xf0, 0x03, 0x00, 0x00, 0xd4, 0x03, 0x00, 0x00, 0x44, 0x01, 0x00, 0x00,
  0xf8, 0x00, 0x00, 0x00, 0xf0, 0x00, 0x00, 0x00, 0xe8, 0x00, 0x00, 0x00,
  0xe0, 0x00, 0x00, 0x00, 0xd8, 0x00, 0x00, 0x00, 0xd0, 0x00, 0x00, 0x00,
  0xc8, 0x00, 0x00, 0x00, 0xc0, 0x00, 0x00, 0x00, 0xb8, 0x00, 0x00, 0x00,
  0xb0, 0x00, 0x00, 0x00, 0xa8, 0x00, 0x00, 0x00, 0xa0, 0x00, 0x00, 0x00,
  0x98, 0x00, 0x00, 0x00, 0x90, 0x00, 0x00, 0x00, 0x88, 0x00, 0x00, 0x00,
  0x68, 0x00, 0x00, 0x00, 0x04, 0x00, 0x00, 0x00, 0x86, 0xe8, 0xff, 0xff,
  0x04, 0x00, 0x00, 0x00, 0x54, 0x00, 0x00, 0x00, 0x0c, 0x00, 0x00, 0x00,
  0x08, 0x00, 0x0e, 0x00, 0x08, 0x00, 0x04, 0x00, 0x08, 0x00, 0x00, 0x00,
  0x10, 0x00, 0x00, 0x00, 0x24, 0x00, 0x00, 0x00, 0x00, 0x00, 0x06, 0x00,
  0x08, 0x00, 0x04, 0x00, 0x06, 0x00, 0x00, 0x00, 0x04, 0x00, 0x00, 0x00,
  0x00, 0x00, 0x00, 0x00, 0x00, 0x00, 0x0a, 0x00, 0x10, 0x00, 0x0c, 0x00,
  0x08, 0x00, 0x04, 0x00, 0x0a, 0x00, 0x00, 0x00, 0x02, 0x00, 0x00, 0x00,
  0x02, 0x00, 0x00, 0x00, 0x04, 0x00, 0x00, 0x00, 0x06, 0x00, 0x00, 0x00,
  0x32, 0x2e, 0x31, 0x32, 0x2e, 0x30, 0x00, 0x00, 0xe6, 0xe8, 0xff, 0xff,
  0x04, 0x00, 0x00, 0x00, 0x10, 0x00, 0x00, 0x00, 0x31, 0x2e, 0x35, 0x2e,
  0x30, 0x00, 0x00, 0x00, 0x00, 0x00, 0x00, 0x00, 0x00, 0x00, 0x00, 0x00,
  0x50, 0xcf, 0xff, 0xff, 0x54, 0xcf, 0xff, 0xff, 0x58, 0xcf, 0xff, 0xff,
  0x5c, 0xcf, 0xff, 0xff, 0x60, 0xcf, 0xff, 0xff, 0x64, 0xcf, 0xff, 0xff,
  0x68, 0xcf, 0xff, 0xff, 0x6c, 0xcf, 0xff, 0xff, 0x70, 0xcf, 0xff, 0xff,
  0x74, 0xcf, 0xff, 0xff, 0x78, 0xcf, 0xff, 0xff, 0x7c, 0xcf, 0xff, 0xff,
  0x80, 0xcf, 0xff, 0xff, 0x84, 0xcf, 0xff, 0xff, 0x3a, 0xe9, 0xff, 0xff,
  0x04, 0x00, 0x00, 0x00, 0x3c, 0x00, 0x00, 0x00, 0xaf, 0xef, 0x31, 0x3e,
  0x93, 0x5f, 0x99, 0x3e, 0xc5, 0xa8, 0xba, 0xbf, 0xd7, 0xac, 0xd6, 0x3f,
  0x01, 0xcf, 0x0c, 0xbd, 0xbb, 0x27, 0x0a, 0xc0, 0xeb, 0xc6, 0xc5, 0x3f,
  0xf8, 0x64, 0xff, 0x3f, 0xdc, 0xa6, 0x80, 0xbf, 0xe7, 0x73, 0x25, 0xc0,
  0x49, 0x6c, 0x8a, 0x3f, 0x4c, 0x8e, 0xda, 0xbf, 0xac, 0x72, 0x9a, 0x3e,
  0x26, 0x56, 0x75, 0xbf, 0x52, 0x24, 0x37, 0x3f, 0x82, 0xe9, 0xff, 0xff,
  0x04, 0x00, 0x00, 0x00, 0x80, 0x02, 0x00, 0x00, 0x74, 0xe4, 0x29, 0x3d,
  0x92, 0x21, 0x14, 0xb9, 0x71, 0x51, 0x17, 0xbb, 0x43, 0x7b, 0x52, 0xb9,
  0x79, 0x1b, 0xfc, 0x3b, 0xec, 0xb3, 0x1d, 0xbd, 0xf9, 0x9b, 0x4f, 0x3b,
  0x3a, 0x85, 0xfb, 0x3b, 0x68, 0xce, 0x35, 0x3b, 0xd7, 0x93, 0xae, 0xba,
  0x70, 0x7b, 0xb6, 0xbc, 0xe7, 0x57, 0xd2, 0x3c, 0x2c, 0xee, 0xd3, 0x3c,
  0x2f, 0x0f, 0x86, 0x3c, 0x29, 0xcc, 0x6f, 0x3c, 0x82, 0x8c, 0x96, 0x3c,
  0x0b, 0xa0, 0x1e, 0xbb, 0x6e, 0x0a, 0x46, 0xbd, 0x78, 0x20, 0x9a, 0x3d,
  0xd7, 0x3b, 0xaf, 0xbb, 0xcf, 0x52, 0x0f, 0x3c, 0x7c, 0x7a, 0x24, 0x3c,
  0x0c, 0xf3, 0x18, 0xbd, 0x8e, 0xb6, 0x84, 0xbd, 0x37, 0x76, 0x7b, 0x3d,
  0x1b, 0x7d, 0xaf, 0x3c, 0x3a, 0x66, 0x68, 0x3c, 0x5f, 0xbc, 0x7f, 0x3d,
  0x22, 0xea, 0x4f, 0xbd, 0x7f, 0x5e, 0xda, 0x3c, 0x4e, 0x9e, 0x07, 0x3d,
  0x99, 0x91, 0xc8, 0xbd, 0xc6, 0xc5, 0x8c, 0x39, 0xcc, 0xa1, 0x79, 0x3c,
  0xf7, 0x68, 0x17, 0xbc, 0xe6, 0x21, 0x36, 0xbd, 0xa9, 0x50, 0x0c, 0xbd,
  0xb7, 0xf0, 0x19, 0x3d, 0xe8, 0xff, 0x31, 0x3c, 0xf2, 0x51, 0x3e, 0xbd,
  0x14, 0xa8, 0xf5, 0xbb, 0xf4, 0xda, 0xcf, 0x3c, 0xee, 0x93, 0x6a, 0xbc,
  0x01, 0xa0, 0x32, 0xbd, 0x51, 0x9d, 0x82, 0x3b, 0x40, 0x58, 0x88, 0xbc,
  0xa0, 0x09, 0x7f, 0xbc, 0xd9, 0xa2, 0x1c, 0xbd, 0xd1, 0xf3, 0xe0, 0x3c,
  0xfa, 0xdc, 0xa6, 0x3d, 0xbd, 0xc2, 0x42, 0xbd, 0xbe, 0xb4, 0x66, 0xbc,
  0x88, 0xee, 0x1d, 0xbc, 0x6c, 0x7c, 0xc1, 0x3b, 0xdd, 0xbc, 0xc9, 0xbd,
  0x48, 0x4a, 0xf6, 0x3c, 0xeb, 0xde, 0xa7, 0x3d, 0xde, 0x93, 0x68, 0xbd,
  0x85, 0xb9, 0xa0, 0xbc, 0xbf, 0xc2, 0x96, 0xbc, 0x07, 0x0c, 0x01, 0x39,
  0xc7, 0x24, 0x95, 0xbd, 0xc8, 0x2c, 0x87, 0xbb, 0xc9, 0x0d, 0x1f, 0x3d,
  0x36, 0x23, 0x31, 0x3d, 0x29, 0xe9, 0x5b, 0x3d, 0xb9, 0x67, 0xd8, 0x3c,
  0x6c, 0x01, 0x7e, 0xbd, 0x4e, 0x7f, 0xbb, 0xbc, 0xee, 0x91, 0xa7, 0xbd,
  0x46, 0x51, 0x9d, 0x3d, 0xcf, 0x2d, 0xd9, 0xbc, 0x46, 0x24, 0xbc, 0xbb,
  0x08, 0x72, 0xdf, 0xbc, 0x92, 0xfd, 0x88, 0xbb, 0xd0, 0x79, 0x9d, 0x3c,
  0x0c, 0x1f, 0x21, 0x3d, 0xf9, 0xf0, 0x4c, 0x3b, 0xcc, 0xff, 0xa1, 0x3c,
  0x64, 0x6f, 0xe5, 0xbc, 0x00, 0x22, 0x84, 0x39, 0x05, 0x41, 0xc4, 0x3b,
  0xff, 0x85, 0xf2, 0x3b, 0x67, 0x0e, 0xe3, 0xbb, 0x19, 0x03, 0x8b, 0x3c,
  0x8b, 0x9c, 0xc9, 0x3d, 0x9f, 0x5f, 0x86, 0xbc, 0x95, 0xa3, 0xf4, 0xbb,
  0x77, 0xdd, 0x82, 0x3d, 0x25, 0xd2, 0x37, 0x3d, 0x15, 0x54, 0x98, 0xbc,
  0xa0, 0xa2, 0x63, 0x3c, 0xf7, 0x0a, 0x51, 0x3d, 0xd6, 0xc7, 0x3b, 0x3d,
  0x7c, 0xc7, 0xa6, 0xbd, 0xcb, 0xf2, 0xc2, 0x3c, 0x52, 0x98, 0x42, 0xbb,
  0xb8, 0xf2, 0x40, 0xba, 0x7f, 0xba, 0x31, 0xbd, 0x4e, 0x90, 0xb1, 0x3c,
  0x09, 0x91, 0x8c, 0xbd, 0x7e, 0xf1, 0x17, 0xbd, 0x86, 0x36, 0x8d, 0xbd,
  0xf5, 0x68, 0xd7, 0xbc, 0x0f, 0x0b, 0xd9, 0x3c, 0xa6, 0xde, 0x1b, 0xbc,
  0x50, 0x19, 0x5e, 0x3d, 0x3d, 0xb0, 0xd0, 0xbb, 0x87, 0xf5, 0xb0, 0xbd,
  0x4c, 0x23, 0xf5, 0x3a, 0x09, 0x03, 0x18, 0xbd, 0xc6, 0xf4, 0x05, 0x3c,
  0xbf, 0xe7, 0xa8, 0xbc, 0x61, 0xc7, 0xae, 0xbc, 0xcf, 0x54, 0x37, 0xbd,
  0x3e, 0xf2, 0x3a, 0xbc, 0x94, 0xb8, 0x8a, 0xbd, 0x20, 0x57, 0x3f, 0xbc,
  0xd3, 0x0a, 0x85, 0xbd, 0x06, 0xb4, 0xa2, 0x3b, 0x85, 0x20, 0x24, 0x3d,
  0xfc, 0x3a, 0x47, 0xbd, 0x10, 0x53, 0xf0, 0xbc, 0x59, 0x37, 0xee, 0xbc,
  0xf9, 0x4b, 0x00, 0xbd, 0xc9, 0xe1, 0x44, 0xbc, 0x18, 0x8e, 0x68, 0x3c,
  0xc7, 0x61, 0x87, 0x3c, 0xec, 0x93, 0x8a, 0x3c, 0x94, 0x0d, 0x11, 0x3d,
  0x01, 0x79, 0x53, 0x3b, 0xb1, 0x3a, 0x2d, 0x3d, 0xeb, 0x5d, 0x57, 0x3a,
  0x99, 0x7b, 0x2c, 0xbd, 0x9e, 0x87, 0x8e, 0xbc, 0x20, 0x18, 0x3f, 0x3c,
  0xef, 0x9e, 0x32, 0x3d, 0xc4, 0xe7, 0x4a, 0xbd, 0x83, 0xe8, 0x7c, 0x3d,
  0x86, 0x5c, 0x91, 0xbc, 0xdb, 0x12, 0x18, 0xbd, 0x0c, 0xde, 0x93, 0x3c,
  0x55, 0xa9, 0xbc, 0x3b, 0x8b, 0xf8, 0x2c, 0xbd, 0xb5, 0x20, 0x31, 0xbd,
  0x8a, 0x05, 0x24, 0x3b, 0x38, 0x88, 0x40, 0xbb, 0x46, 0xf1, 0x91, 0x3c,
  0x44, 0x24, 0x0c, 0x3d, 0xda, 0x10, 0x2b, 0xbd, 0x3d, 0x65, 0x80, 0xbd,
  0xb7, 0x81, 0x17, 0x3d, 0x62, 0x0a, 0x03, 0x3d, 0xd9, 0x8f, 0xfc, 0x3b,
  0x37, 0x03, 0x0b, 0x3d, 0xd6, 0xd1, 0xa2, 0xbd, 0x5f, 0x02, 0x72, 0x3c,
  0x83, 0xd7, 0xb4, 0x3c, 0x4c, 0x52, 0x21, 0xbc, 0x6d, 0x48, 0xe0, 0xbd,
  0x0e, 0xec, 0xff, 0xff, 0x04, 0x00, 0x00, 0x00, 0x0c, 0x00, 0x00, 0x00,
  0x1f, 0x97, 0xa5, 0xbe, 0xbe, 0xd0, 0x8a, 0x3e, 0xa9, 0x72, 0x7a, 0x3c,
  0x26, 0xec, 0xff, 0xff, 0x04, 0x00, 0x00, 0x00, 0x14, 0x00, 0x00, 0x00,
  0x6a, 0xf9, 0xe8, 0xbc, 0x5b, 0xff, 0xac, 0x3d, 0x19, 0x5c, 0x75, 0xbd,
  0xd9, 0x9c, 0xe5, 0x3d, 0xf3, 0x8c, 0x30, 0xbe, 0x46, 0xec, 0xff, 0xff,
  0x04, 0x00, 0x00, 0x00, 0x08, 0x00, 0x00, 0x00, 0xff, 0xff, 0xff, 0xff,
  0x20, 0x00, 0x00, 0x00, 0x5a, 0xec, 0xff, 0xff, 0x04, 0x00, 0x00, 0x00,
  0x00, 0x09, 0x00, 0x00, 0x6e, 0x26, 0x97, 0x3e, 0xf2, 0x08, 0xd0, 0x3e,
  0x64, 0x27, 0xd6, 0x3e, 0x10, 0xc2, 0x40, 0xbc, 0xe9, 0x03, 0xb3, 0x3d,
  0xca, 0x73, 0x60, 0xbd, 0xa2, 0x00, 0xa3, 0xbd, 0xd4, 0xa8, 0xab, 0x3d,
  0xa7, 0xe3, 0x8b, 0xbe, 0x9c, 0x1f, 0xac, 0xbd, 0xca, 0xd7, 0xf3, 0xbd,
  0x06, 0x49, 0x8a, 0x3d, 0x57, 0xfa, 0xc4, 0x3c, 0xa4, 0x97, 0xa6, 0xbe,
  0x4e, 0x99, 0x26, 0x3e, 0xc1, 0x69, 0xde, 0xbc, 0xb3, 0xc4, 0x55, 0x3e,
  0xe2, 0x64, 0x23, 0x3f, 0x27, 0x91, 0x49, 0x3d, 0x3d, 0xe7, 0x94, 0x3e,
  0xfd, 0x17, 0x8e, 0x3d, 0xb2, 0x02, 0x32, 0x3e, 0x9f, 0xbe, 0xf3, 0x3e,
  0xcf, 0xbf, 0xcb, 0x3b, 0xc7, 0x33, 0x1d, 0x3e, 0xfb, 0x7e, 0xea, 0x3d,
  0x44, 0x40, 0x11, 0x3e, 0x4f, 0x2a, 0xa8, 0xbe, 0xcd, 0x44, 0x10, 0x3d,
  0x6e, 0x51, 0x4f, 0xbd, 0x2a, 0x85, 0x99, 0x3d, 0x01, 0x76, 0x53, 0xbd,
  0xce, 0x81, 0x0c, 0xbf, 0x86, 0x0b, 0x26, 0xbe, 0x5d, 0x22, 0x2b, 0xbe,
  0x44, 0x4c, 0x9e, 0xbd, 0x9d, 0x0e, 0x19, 0x3f, 0x60, 0x42, 0x0d, 0x3e,
  0x88, 0x7b, 0x28, 0xbc, 0x81, 0xb4, 0x75, 0xbe, 0x67, 0xe9, 0x03, 0xbe,
  0xc1, 0x86, 0x00, 0x3e, 0x82, 0xbe, 0xd2, 0xbd, 0xd7, 0x8e, 0x2d, 0x3e,
  0xfe, 0x70, 0xe4, 0x3e, 0x86, 0x16, 0xd8, 0x3d, 0x9a, 0x5f, 0x36, 0xbe,
  0xc9, 0xc2, 0x80, 0xbd, 0x6e, 0x7c, 0xac, 0x3e, 0x80, 0xee, 0xdc, 0x3d,
  0xfd, 0x00, 0xf6, 0x3d, 0xbe, 0x2b, 0x9e, 0x3e, 0x4a, 0xcc, 0x0a, 0xbf,
  0xff, 0x43, 0xad, 0xbe, 0x01, 0x89, 0xbc, 0x3e, 0xb5, 0xf3, 0xd8, 0xbd,
  0x20, 0xf7, 0x0d, 0x3f, 0x65, 0xbc, 0x69, 0x3e, 0x73, 0x9d, 0x15, 0x3c,
  0x69, 0x53, 0xb8, 0xbe, 0xca, 0xe0, 0x6a, 0x3d, 0xa4, 0x04, 0xb6, 0xbe,
  0x5b, 0xb4, 0x84, 0xbe, 0x0a, 0x0d, 0x16, 0x3e, 0x88, 0x82, 0x85, 0x3e,
  0x04, 0xd8, 0xe5, 0x3e, 0x7d, 0x1f, 0x7b, 0xbc, 0x07, 0x81, 0x9a, 0xbc,
  0x31, 0xc6, 0x1b, 0x3f, 0xf9, 0x10, 0xeb, 0xbd, 0xc2, 0xd4, 0xf9, 0xbe,
  0x10, 0xb5, 0xdc, 0xbe, 0x5d, 0x24, 0x03, 0xbe, 0x90, 0xe8, 0x02, 0x3e,
  0x8c, 0x6e, 0x03, 0xbe, 0x10, 0x5c, 0xa0, 0xbe, 0x27, 0x1b, 0x4c, 0x3e,
  0x1d, 0x70, 0x31, 0x3e, 0x67, 0xdf, 0x90, 0x3e, 0x81, 0xc9, 0xf8, 0xbc,
  0xe3, 0xe1, 0x58, 0xbe, 0xde, 0x31, 0xa1, 0xbd, 0x06, 0x4b, 0xf9, 0xbc,
  0xeb, 0x28, 0x45, 0xbd, 0xab, 0xd7, 0xb6, 0x3e, 0x3d, 0xaa, 0x3a, 0xbf,
  0x3b, 0x18, 0x8b, 0xbd, 0x44, 0xf1, 0x49, 0xbe, 0x0a, 0x48, 0x06, 0xbe,
  0x9b, 0x7b, 0x4a, 0xbe, 0xdb, 0xfe, 0x3a, 0x3d, 0x54, 0x95, 0x1f, 0x3e,
  0x4e, 0x78, 0x3a, 0xbe, 0xf0, 0x10, 0x3e, 0x3e, 0xfd, 0x90, 0x63, 0x3d,
  0x39, 0x14, 0x92, 0xbe, 0x65, 0x96, 0x93, 0x3d, 0x86, 0x3b, 0xa8, 0xbd,
  0x5f, 0x56, 0x99, 0x3e, 0x7e, 0x89, 0xa5, 0xbe, 0x85, 0x84, 0x0e, 0x3b,
  0x07, 0x8a, 0xc3, 0x3e, 0xd7, 0x9b, 0xab, 0x3d, 0xd4, 0xb2, 0xf1, 0x3d,
  0x67, 0x4c, 0xaa, 0x3c, 0xdd, 0x0b, 0x49, 0xbe, 0xdd, 0xd1, 0x56, 0xbd,
  0x81, 0x0d, 0x66, 0xbe, 0xeb, 0xc7, 0xd3, 0x3e, 0xc8, 0xbf, 0x19, 0x3e,
  0x50, 0x69, 0x6b, 0xbe, 0x85, 0xe7, 0xaf, 0x3e, 0xa3, 0x46, 0x79, 0xbd,
  0x96, 0x6f, 0x8d, 0x3d, 0xa8, 0xc3, 0x94, 0xbd, 0x58, 0x5a, 0x81, 0x3e,
  0xfd, 0x8c, 0xe3, 0x3c, 0xcc, 0x0c, 0xa3, 0x3e, 0xca, 0x28, 0x71, 0x3d,
  0x47, 0x08, 0x94, 0xbe, 0xa8, 0x74, 0xea, 0x3e, 0x50, 0x8c, 0xe1, 0x3e,
  0xf6, 0x08, 0x68, 0x3e, 0x09, 0xda, 0x3b, 0x3e, 0xb4, 0x25, 0x53, 0x3e,
  0xd3, 0xee, 0x27, 0xbe, 0xcd, 0x93, 0x83, 0xbc, 0xb1, 0xe5, 0xb3, 0x3e,
  0xe2, 0xad, 0xdb, 0xbd, 0xf0, 0x8b, 0x71, 0xbe, 0x14, 0x48, 0xc1, 0xbd,
  0xa7, 0x3b, 0xed, 0x3d, 0xf4, 0x51, 0xe2, 0xbe, 0xc2, 0x8d, 0x3f, 0xbd,
  0x13, 0x1b, 0x46, 0x3f, 0xec, 0x2b, 0x8b, 0x3e, 0xf6, 0x1d, 0x13, 0xbe,
  0x03, 0xda, 0x7a, 0xbb, 0x14, 0x3e, 0x15, 0x3e, 0xe3, 0x4b, 0xc8, 0x3d,
  0x2c, 0x4b, 0xd1, 0xbe, 0xfe, 0x98, 0xbc, 0xbe, 0x9b, 0x85, 0x79, 0x3e,
  0x21, 0xc2, 0xb3, 0x3e, 0x55, 0xd8, 0x09, 0xbe, 0x27, 0x49, 0x41, 0xb9,
  0xd0, 0xbd, 0x7d, 0xbd, 0x66, 0x6e, 0x18, 0x3d, 0x61, 0x52, 0x26, 0xbe,
  0xd4, 0xeb, 0xb7, 0xbe, 0xcb, 0x90, 0x4b, 0x3c, 0x2a, 0xc1, 0x0c, 0xbe,
  0x6c, 0x1f, 0xf7, 0xbe, 0xff, 0xef, 0x2d, 0xbd, 0x21, 0x70, 0x07, 0x3e,
  0x89, 0xd7, 0x8a, 0xbe, 0x86, 0x5e, 0x9c, 0x3d, 0x3c, 0x59, 0x3d, 0x3d,
  0xed, 0x80, 0x51, 0xbe, 0x4e, 0xb3, 0x6c, 0x3d, 0x87, 0x25, 0x16, 0x3e,
  0x3a, 0xfe, 0x0c, 0x3f, 0x0e, 0xf1, 0x7a, 0x3e, 0xf3, 0x48, 0xea, 0xbd,
  0xb8, 0x31, 0xd2, 0xbe, 0xb2, 0xfd, 0x13, 0x3e, 0xa1, 0x9a, 0x3c, 0x3e,
  0xb3, 0x9a, 0xca, 0x3e, 0x54, 0xe9, 0x61, 0xbd, 0xfc, 0xfc, 0xab, 0x3d,
  0x58, 0xf4, 0x1f, 0xbc, 0x05, 0x27, 0xe7, 0x3d, 0x5e, 0x2d, 0xbe, 0x3c,
  0x49, 0xb9, 0xf0, 0xbd, 0x8a, 0xb8, 0x42, 0xbd, 0xd1, 0x0b, 0xc9, 0x3d,
  0xfd, 0x88, 0x12, 0x3e, 0xe1, 0xf7, 0x08, 0x3e, 0xfa, 0x25, 0x60, 0x3d,
  0x59, 0x2f, 0xc5, 0x3d, 0x7d, 0xa0, 0x74, 0xbe, 0x2b, 0xf2, 0x66, 0xbe,
  0x50, 0x4c, 0xb8, 0xbe, 0x59, 0xe2, 0x01, 0xbe, 0xd2, 0x05, 0xb0, 0x3d,
  0x98, 0x72, 0xa2, 0xbe, 0x55, 0x67, 0x17, 0xbd, 0xe6, 0x97, 0x03, 0xbd,
  0xc7, 0x9b, 0x94, 0xbe, 0x54, 0xed, 0x69, 0x3e, 0x5c, 0x57, 0x41, 0xbe,
  0x8d, 0x28, 0x12, 0xbe, 0xc1, 0x51, 0xe5, 0xbe, 0x13, 0x8f, 0x53, 0x3d,
  0x38, 0x44, 0xf0, 0x3e, 0x78, 0xe7, 0xa9, 0xbe, 0x46, 0x84, 0xcd, 0x3e,
  0x58, 0x2d, 0x60, 0x3c, 0x3e, 0xa5, 0x9e, 0x3e, 0xae, 0x6a, 0x67, 0x3d,
  0x7f, 0x42, 0xa7, 0xbd, 0xb1, 0xdf, 0xec, 0xbc, 0x8a, 0x09, 0x95, 0x3d,
  0x37, 0xfe, 0x2c, 0xbc, 0xbd, 0x6d, 0x80, 0xbe, 0xa5, 0xff, 0x8a, 0xbe,
  0xd3, 0xc5, 0x31, 0xbe, 0x91, 0xba, 0x1c, 0x3e, 0xeb, 0x47, 0xee, 0x3d,
  0xaa, 0xc1, 0x92, 0xbc, 0x9f, 0x92, 0x68, 0x3e, 0x96, 0x85, 0x3f, 0xbf,
  0x7e, 0x7f, 0x03, 0xbe, 0x56, 0xce, 0x96, 0xbe, 0xa0, 0xde, 0x6d, 0x3e,
  0x55, 0x5b, 0x59, 0xbe, 0x72, 0x17, 0x9b, 0xbe, 0x7d, 0xb0, 0xbd, 0x3e,
  0xcf, 0x95, 0x34, 0x3e, 0x94, 0xd1, 0xba, 0x3e, 0xc2, 0x44, 0xe3, 0x3d,
  0x4f, 0x3f, 0xef, 0x3c, 0xd9, 0xcb, 0x13, 0x3e, 0x3b, 0x5b, 0xbf, 0x3e,
  0xe0, 0x1d, 0x05, 0x3e, 0x52, 0xbb, 0xc9, 0xbc, 0x2e, 0xb1, 0xac, 0x3c,
  0x9a, 0x23, 0x9d, 0x3e, 0x9d, 0x7b, 0x75, 0xbe, 0x6e, 0xbe, 0x10, 0xbe,
  0x0e, 0x6b, 0x44, 0xbe, 0x61, 0xc1, 0xb4, 0x3e, 0x5a, 0xcf, 0xe5, 0xbc,
  0x74, 0x87, 0x90, 0x3e, 0xf7, 0x04, 0x1c, 0x3e, 0xa1, 0x4d, 0xbd, 0x3e,
  0x3a, 0x78, 0xfb, 0xbe, 0xc3, 0x7c, 0x58, 0x3d, 0xbf, 0xb9, 0xde, 0xbe,
  0xb6, 0x7a, 0xa9, 0x3d, 0x4c, 0xae, 0x67, 0xbe, 0xab, 0x26, 0xa6, 0x3e,
  0x57, 0xfe, 0xc8, 0xbe, 0xf4, 0x78, 0x0d, 0x3e, 0x16, 0x2b, 0x32, 0x3e,
  0x44, 0x71, 0x06, 0xbe, 0x2a, 0xb6, 0xa0, 0x3e, 0x70, 0x78, 0xe5, 0x3d,
  0xd7, 0x49, 0xdc, 0x3e, 0x2a, 0xba, 0x49, 0xbe, 0x0e, 0x8f, 0x5f, 0xbe,
  0x06, 0xf3, 0xac, 0x3d, 0xb7, 0x4e, 0xe0, 0xbd, 0x88, 0x7f, 0x91, 0x3c,
  0x84, 0x43, 0xbe, 0x3d, 0xb6, 0xfa, 0x06, 0xbe, 0x16, 0x9f, 0x96, 0xbd,
  0x87, 0xaf, 0x63, 0x3e, 0x0b, 0xd0, 0xb2, 0xbe, 0x63, 0x04, 0xa3, 0x3e,
  0x4b, 0x6e, 0xed, 0xbd, 0x45, 0x2b, 0x26, 0xbe, 0x7e, 0xa7, 0x96, 0xbe,
  0x9a, 0xda, 0x5f, 0xbe, 0x30, 0xe1, 0x41, 0x3e, 0x2b, 0xd5, 0x0a, 0xbd,
  0x94, 0xf3, 0xf6, 0xbc, 0x9f, 0xa2, 0x26, 0xbe, 0xd9, 0xc9, 0x26, 0x3e,
  0xcd, 0x9f, 0xde, 0xbe, 0x02, 0xa9, 0x97, 0x3e, 0x23, 0x3f, 0xc2, 0xbd,
  0x05, 0x72, 0xb5, 0xbb, 0xd2, 0xf9, 0x36, 0x3e, 0xb6, 0xab, 0xd9, 0xbd,
  0x80, 0x57, 0x8a, 0xbd, 0xa6, 0xe8, 0x9b, 0xbe, 0x27, 0x15, 0xf9, 0x3d,
  0x5a, 0x19, 0xa1, 0x3c, 0x64, 0xcd, 0x14, 0xbe, 0x34, 0x75, 0x07, 0xbf,
  0xce, 0x59, 0x42, 0xbe, 0x0a, 0x07, 0x5c, 0x3d, 0x6b, 0x70, 0xfe, 0x3e,
  0x9f, 0x74, 0x31, 0xbe, 0x62, 0x48, 0x9b, 0x3d, 0x24, 0xc6, 0x31, 0x3e,
  0x4c, 0x48, 0x1d, 0x3e, 0x9c, 0xeb, 0xec, 0xbe, 0x9f, 0xcc, 0xb4, 0x3a,
  0x6e, 0x0f, 0xc8, 0xbd, 0xaa, 0x6c, 0xc0, 0x3e, 0x33, 0x06, 0x98, 0x3e,
  0x46, 0x38, 0x11, 0x3b, 0x93, 0xe6, 0x16, 0xbe, 0x34, 0xc0, 0xd3, 0xbe,
  0x5c, 0xe7, 0x51, 0x3e, 0x97, 0x1c, 0x05, 0xbe, 0x50, 0x6b, 0xd5, 0x3d,
  0x11, 0x61, 0x19, 0x3e, 0x04, 0xd5, 0x83, 0xbb, 0xa5, 0x0d, 0x13, 0xbe,
  0x8e, 0x67, 0x24, 0xbe, 0x41, 0xc5, 0x04, 0x3e, 0x21, 0xbf, 0xa8, 0x3d,
  0x3d, 0x5d, 0x0e, 0xbf, 0xff, 0x8d, 0x02, 0x3f, 0x54, 0x49, 0xba, 0x3d,
  0x53, 0x54, 0x19, 0x3f, 0x13, 0x0a, 0x8a, 0xbd, 0xac, 0xec, 0xec, 0xbe,
  0x54, 0xd6, 0xf4, 0x3d, 0x73, 0x77, 0xea, 0xbe, 0xc4, 0x3c, 0x84, 0xbe,
  0xa8, 0xba, 0xd7, 0x3d, 0x3a, 0x5d, 0xc5, 0x3c, 0xc9, 0x27, 0x61, 0x3d,
  0x91, 0xb6, 0xf3, 0xbd, 0x86, 0x04, 0x53, 0xbe, 0x7f, 0x85, 0x18, 0xbd,
  0x78, 0x2a, 0xf6, 0x3d, 0x80, 0x0f, 0x54, 0xbe, 0x4e, 0x94, 0xc3, 0xba,
  0xa3, 0x56, 0x73, 0xbe, 0x24, 0x4e, 0xac, 0xbe, 0x50, 0x81, 0xad, 0xbe,
  0xd4, 0xc7, 0x94, 0x3d, 0x69, 0x0e, 0xec, 0x3b, 0x0c, 0x0f, 0x28, 0x3e,
  0xbe, 0x89, 0x1f, 0x3e, 0x9d, 0xde, 0xac, 0x3e, 0x2b, 0xcb, 0x9e, 0xbc,
  0x12, 0x09, 0x2f, 0x3e, 0x4a, 0xa3, 0xb2, 0xbd, 0x58, 0x4c, 0x1e, 0xbe,
  0x17, 0xa1, 0x5f, 0x3e, 0xfb, 0xb6, 0x51, 0xbd, 0x2e, 0xd7, 0xe1, 0x3e,
  0x3e, 0x44, 0xa0, 0xbd, 0x99, 0x3a, 0x2c, 0x3e, 0xd2, 0x74, 0x39, 0x3e,
  0xbf, 0xae, 0x1b, 0xbf, 0xf3, 0x97, 0xd8, 0xbb, 0x39, 0xa6, 0x0b, 0x3f,
  0x0b, 0x98, 0x2b, 0x3e, 0x34, 0x69, 0x7a, 0x3e, 0x73, 0x47, 0x30, 0xbd,
  0xf4, 0xfd, 0x8f, 0x3e, 0x4d, 0x14, 0x48, 0x3e, 0xd5, 0x5d, 0xa9, 0xbe,
  0x99, 0xdf, 0xd7, 0x3e, 0x35, 0x36, 0xfc, 0x3e, 0x92, 0xd5, 0x11, 0xbe,
  0x5f, 0x92, 0xb2, 0xbc, 0x69, 0x83, 0xfc, 0x3d, 0x9f, 0xb7, 0x69, 0x3d,
  0x73, 0xba, 0x85, 0x3e, 0xe1, 0xac, 0x2c, 0x3e, 0x8d, 0xba, 0x0c, 0x3f,
  0x40, 0xf4, 0x20, 0x3f, 0xf5, 0x44, 0x5e, 0x3e, 0x2f, 0xf5, 0xe2, 0xbe,
  0x3c, 0x85, 0xdb, 0x3e, 0xfc, 0x07, 0xb4, 0x3e, 0xe8, 0xd1, 0xca, 0xbe,
  0x58, 0x70, 0x88, 0x3e, 0x18, 0xf9, 0x6c, 0xbe, 0x94, 0x5f, 0x9f, 0xbe,
  0x1d, 0xfb, 0x83, 0x3e, 0xd0, 0x9e, 0x81, 0x3e, 0x51, 0x79, 0x6b, 0xbe,
  0x94, 0x8f, 0x97, 0xbd, 0x22, 0x04, 0xab, 0xbe, 0x99, 0x90, 0x06, 0xbf,
  0x3f, 0x87, 0xb0, 0xbe, 0x80, 0x49, 0xc8, 0x3e, 0x45, 0xeb, 0x8d, 0x3d,
  0x5d, 0xde, 0x5e, 0x3d, 0x8f, 0x79, 0x1f, 0x3e, 0xb8, 0x53, 0x66, 0xbd,
  0xb6, 0x09, 0xdc, 0x3c, 0x56, 0x79, 0x97, 0x3e, 0x13, 0x2c, 0x10, 0x3e,
  0xe2, 0x67, 0xdd, 0xbc, 0xbb, 0xf4, 0x1a, 0x3e, 0x84, 0xb8, 0x6a, 0xbe,
  0x77, 0x0c, 0x35, 0x3f, 0x22, 0x00, 0x00, 0x3e, 0x83, 0xc9, 0x40, 0xbe,
  0x23, 0x53, 0xd8, 0x3e, 0x43, 0x0f, 0x84, 0x3e, 0x39, 0x10, 0x02, 0xbf,
  0x3c, 0x9a, 0x37, 0xbe, 0x85, 0x79, 0xa9, 0xbe, 0xf2, 0xd7, 0xd6, 0x3e,
  0xf6, 0x29, 0x20, 0x3c, 0xd1, 0x5e, 0x88, 0xbe, 0xa6, 0x2c, 0x91, 0x3d,
  0x69, 0x8d, 0x08, 0x3e, 0x8d, 0x95, 0x3d, 0x3c, 0x4e, 0x91, 0x52, 0x3c,
  0x36, 0x71, 0xa4, 0x3e, 0x5c, 0x2a, 0xd8, 0xbd, 0x8d, 0x27, 0x93, 0xbe,
  0x87, 0xc0, 0x22, 0xbe, 0xf2, 0x3a, 0x0c, 0x3d, 0x84, 0x2b, 0x82, 0xbd,
  0x80, 0xfd, 0x55, 0xbd, 0x3b, 0xb4, 0xbe, 0x3e, 0xe6, 0x8b, 0x28, 0x3f,
  0x12, 0xc0, 0x04, 0xbe, 0x2c, 0xe2, 0x5e, 0xbe, 0xf5, 0xb6, 0xbc, 0xbd,
  0x92, 0x34, 0x27, 0xbc, 0xaa, 0x52, 0xef, 0xbd, 0x01, 0xff, 0xda, 0x3e,
  0xf5, 0xbf, 0xbf, 0x3e, 0x37, 0x0f, 0x13, 0xbe, 0xbd, 0x9c, 0x89, 0xbe,
  0x5a, 0x64, 0xbb, 0xbc, 0x2c, 0xec, 0x38, 0x3e, 0x4d, 0x64, 0xb3, 0x3d,
  0xa8, 0x0e, 0xc1, 0x3e, 0x03, 0x9e, 0x95, 0x3e, 0x93, 0x13, 0xba, 0xbc,
  0x63, 0x39, 0xb8, 0x3d, 0xb3, 0xfc, 0xdc, 0x3e, 0xe2, 0x2b, 0xa3, 0x3e,
  0x9e, 0xb0, 0x1d, 0xbe, 0x7c, 0x17, 0x16, 0xbf, 0xae, 0xb9, 0xd5, 0x3e,
  0xa3, 0x41, 0x70, 0xbe, 0x28, 0x43, 0x51, 0xbe, 0xb6, 0x66, 0xcf, 0xbd,
  0x62, 0x53, 0x9b, 0xbe, 0x47, 0x7d, 0x74, 0x3d, 0xe4, 0x3b, 0x41, 0xbe,
  0xc7, 0x8d, 0x03, 0xbe, 0x00, 0x50, 0x78, 0x3d, 0x15, 0xdd, 0xa5, 0xbe,
  0x6f, 0xb9, 0xc2, 0xbd, 0x5e, 0x5a, 0x1d, 0x3e, 0x4a, 0x80, 0xc6, 0xbc,
  0xeb, 0x3a, 0xa5, 0x3e, 0x95, 0xaf, 0xb4, 0x3e, 0x39, 0x96, 0xb8, 0x3d,
  0xe3, 0xed, 0x41, 0xbe, 0x18, 0xda, 0xde, 0xbc, 0xc1, 0x32, 0xa5, 0x3d,
  0xd7, 0x53, 0x0d, 0xbe, 0x37, 0x1c, 0x11, 0xbe, 0xcb, 0x88, 0x29, 0xbd,
  0x9e, 0x85, 0xd4, 0x3e, 0xf8, 0xb7, 0x20, 0xbd, 0x6b, 0xd2, 0x8c, 0xbe,
  0x5e, 0x09, 0x9c, 0x3c, 0x6c, 0xb3, 0x51, 0xbe, 0x65, 0xa4, 0xbd, 0xbe,
  0x5e, 0x46, 0x08, 0x3e, 0x1d, 0x52, 0xbc, 0xbe, 0x83, 0x76, 0xbf, 0xbd,
  0x5a, 0xd6, 0x8f, 0xbe, 0x9b, 0xb5, 0x4a, 0x3c, 0x38, 0xb6, 0x70, 0xbd,
  0x25, 0x5c, 0xa7, 0xbe, 0xc9, 0x0c, 0xe9, 0xbe, 0x84, 0xe2, 0xcf, 0x3c,
  0x5a, 0xdf, 0x24, 0x3d, 0x74, 0xf3, 0x15, 0x3e, 0xe9, 0xca, 0xd1, 0xbe,
  0xf6, 0x05, 0x96, 0xbe, 0xd4, 0x7f, 0x85, 0xbd, 0xc6, 0x61, 0xbe, 0x3e,
  0x4d, 0xf7, 0xee, 0x3a, 0x86, 0x5b, 0xb5, 0x3e, 0xb0, 0x84, 0xb1, 0xbd,
  0xf6, 0x67, 0x2a, 0xbf, 0x85, 0xc0, 0xd1, 0x3d, 0xd9, 0x5d, 0x7f, 0xbe,
  0xba, 0x85, 0x44, 0x3e, 0xb8, 0x46, 0x5e, 0xbe, 0x31, 0x1e, 0x1f, 0x3e,
  0xdf, 0x18, 0x7b, 0xbc, 0xa8, 0xed, 0xfb, 0xbe, 0xfc, 0x3f, 0x83, 0x3e,
  0x56, 0xf0, 0xb1, 0x3e, 0x31, 0x4f, 0x69, 0xbe, 0x10, 0x78, 0x67, 0x3e,
  0x28, 0x08, 0x5c, 0x3e, 0x94, 0x3e, 0xba, 0x3e, 0x7b, 0x2e, 0x3c, 0xbd,
  0x64, 0x0c, 0x7e, 0xbc, 0x70, 0x31, 0xcb, 0xbd, 0x14, 0xa4, 0x9a, 0xbe,
  0x0b, 0x00, 0xc7, 0xbe, 0x90, 0x5b, 0x82, 0x3d, 0xe4, 0x79, 0x86, 0xbe,
  0xdf, 0x9c, 0xd3, 0xbd, 0xdf, 0x14, 0x67, 0x3e, 0x9f, 0xd7, 0x1b, 0x3c,
  0x2f, 0xaa, 0xbd, 0xbe, 0xb4, 0x3d, 0xeb, 0x3a, 0xb8, 0x6f, 0x89, 0x3e,
  0x74, 0x13, 0xcc, 0xbe, 0xb4, 0x44, 0x56, 0xbd, 0x99, 0x00, 0x32, 0x3e,
  0x3d, 0x6c, 0x87, 0xbe, 0xd8, 0xd4, 0xfa, 0x3c, 0x73, 0xf3, 0x87, 0x3d,
  0xe2, 0x04, 0x9f, 0x3d, 0x18, 0xbc, 0x24, 0xbe, 0xbd, 0xd7, 0xbc, 0xbe,
  0x3d, 0x49, 0x90, 0xbc, 0xf7, 0xb1, 0xe3, 0x3d, 0xf5, 0xfa, 0x77, 0xba,
  0xdb, 0x6f, 0x05, 0x3e, 0x29, 0xa0, 0x3a, 0xbe, 0x38, 0xd5, 0xa9, 0xbd,
  0xb4, 0xaf, 0x58, 0x3e, 0xb2, 0xd9, 0x72, 0xbe, 0x37, 0x54, 0x4b, 0x3e,
  0xd0, 0x6a, 0x86, 0xbe, 0xf4, 0xf7, 0x5d, 0x3e, 0xda, 0x01, 0x01, 0xbd,
  0x96, 0x94, 0x12, 0x3d, 0x52, 0x63, 0x23, 0xbe, 0x00, 0x41, 0x53, 0xbe,
  0x00, 0x6e, 0x9c, 0x3d, 0xe5, 0xc3, 0x4c, 0xbe, 0xf8, 0x4b, 0x05, 0x3e,
  0x50, 0xb4, 0xc7, 0xbe, 0x5e, 0xcc, 0xbd, 0xbd, 0x79, 0x45, 0x28, 0xbe,
  0xbd, 0x2f, 0x05, 0xbc, 0x46, 0xa3, 0x21, 0xbd, 0x58, 0xc3, 0x52, 0x3e,
  0xba, 0x53, 0x5c, 0xbe, 0x2e, 0x94, 0x77, 0xbd, 0x4c, 0x88, 0x8e, 0x3c,
  0x1a, 0x2c, 0x1f, 0xbe, 0x20, 0xa4, 0x98, 0xbc, 0xcf, 0xf3, 0x62, 0xbd,
  0xaf, 0x35, 0x6a, 0x3c, 0xe1, 0x0b, 0x57, 0x3e, 0x8e, 0x7c, 0xc4, 0xbd,
  0x25, 0xd6, 0x5c, 0xbe, 0x91, 0x6f, 0x5d, 0x3c, 0xac, 0x5d, 0xc1, 0xbb,
  0x03, 0x80, 0x93, 0xbd, 0x51, 0x04, 0x24, 0x3e, 0x75, 0x8d, 0x4f, 0xbd,
  0x32, 0x32, 0xba, 0x3e, 0xb1, 0xb2, 0xa0, 0x3e, 0x21, 0x38, 0x15, 0x3e,
  0x46, 0x29, 0x1d, 0xbe, 0xb9, 0xa9, 0xfd, 0x3e, 0xee, 0xa2, 0x62, 0xbd,
  0xbc, 0xb8, 0x29, 0x3e, 0xb3, 0xdd, 0x7e, 0xbe, 0xef, 0x0c, 0xab, 0x3e,
  0x93, 0x2b, 0x47, 0xbe, 0x4c, 0xde, 0xf5, 0xbd, 0xfe, 0x17, 0x13, 0x3e,
  0xa8, 0x34, 0x71, 0x3f, 0x43, 0x83, 0x12, 0x3b, 0xf6, 0xc7, 0x22, 0x3c,
  0x98, 0x89, 0x1c, 0xbd, 0xa8, 0x5c, 0xf2, 0x3d, 0xaa, 0x1c, 0x5f, 0xbd,
  0x3c, 0x03, 0xbf, 0x3c, 0xee, 0xec, 0xfd, 0xbe, 0xbf, 0x84, 0x0a, 0x3f,
  0x5b, 0x2b, 0xff, 0x3d, 0x5b, 0x9f, 0xb4, 0x3e, 0x70, 0x30, 0x8a, 0x3d,
  0x8d, 0x5a, 0x29, 0x3f, 0x66, 0xf5, 0xff, 0xff, 0x04, 0x00, 0x00, 0x00,
  0x80, 0x04, 0x00, 0x00, 0xa4, 0x1b, 0x76, 0x3f, 0x03, 0xfe, 0x6c, 0x3f,
  0xef, 0x16, 0x1a, 0xbe, 0xc1, 0xfc, 0xa5, 0x3f, 0xfe, 0x41, 0x75, 0xbe,
  0xdf, 0x26, 0xa0, 0xbc, 0x36, 0x9e, 0x00, 0x3f, 0xd3, 0x92, 0x82, 0xbe,
  0x16, 0xbe, 0x90, 0x3c, 0x7d, 0x49, 0x4b, 0xbf, 0xb3, 0x25, 0xba, 0xbe,
  0x37, 0xb0, 0xf4, 0xbe, 0x9b, 0x7d, 0x3f, 0x3f, 0xcd, 0x21, 0xa6, 0x3e,
  0xa5, 0x98, 0xc8, 0xbe, 0x15, 0xb0, 0xaf, 0x3f, 0x36, 0x37, 0x5b, 0xbe,
  0xdb, 0x01, 0x89, 0x3e, 0xc4, 0xfb, 0x6a, 0xbd, 0x05, 0xb1, 0x1d, 0x3f,
  0x4d, 0xfa, 0xb4, 0x3d, 0x00, 0x04, 0x5b, 0xbe, 0xa8, 0xa2, 0xb4, 0x3e,
  0x59, 0x48, 0xb5, 0xbe, 0x1f, 0x8e, 0xec, 0xbe, 0x73, 0x1c, 0x11, 0xbf,
  0x53, 0xee, 0x91, 0x3f, 0x8e, 0x92, 0xa6, 0xbf, 0x3f, 0x87, 0x84, 0xbf,
  0x23, 0x08, 0x5f, 0xbe, 0x9a, 0x02, 0xb7, 0x3d, 0x75, 0xe3, 0xc2, 0xbf,
  0x70, 0xc5, 0x85, 0xbf, 0x69, 0x62, 0xee, 0x3d, 0xd2, 0x46, 0x23, 0xbf,
  0x67, 0x5b, 0x0f, 0x3e, 0x9d, 0xbe, 0x8e, 0x3f, 0xbd, 0x5a, 0x3e, 0xbe,
  0x76, 0xa6, 0xa5, 0xbf, 0x7d, 0x09, 0x8c, 0x3f, 0x70, 0x0e, 0x8f, 0x3e,
  0x59, 0xe5, 0x1d, 0x3f, 0x81, 0x86, 0x01, 0xc0, 0x9b, 0x0b, 0x9b, 0xbe,
  0xaa, 0x26, 0xd8, 0x3e, 0xd2, 0x5c, 0x43, 0x3f, 0x03, 0x5e, 0x25, 0xbf,
  0xef, 0x7e, 0x29, 0x3e, 0xdb, 0xec, 0x47, 0x3f, 0x60, 0x98, 0x8a, 0xbf,
  0x25, 0x0e, 0xad, 0x3e, 0xc2, 0x9e, 0x8c, 0x3f, 0x9e, 0x19, 0xd8, 0xbc,
  0x32, 0x61, 0xaf, 0x3e, 0x8a, 0x02, 0x86, 0x3f, 0xd3, 0xe2, 0x0d, 0xbe,
  0xc3, 0x92, 0x6f, 0xbf, 0x10, 0x85, 0xb6, 0x3d, 0xdb, 0xe3, 0x90, 0xbe,
  0x65, 0x74, 0xf2, 0x3c, 0xc2, 0x13, 0x9c, 0xbd, 0xbe, 0x6e, 0x50, 0xbf,
  0x15, 0x11, 0x4e, 0xbf, 0xa5, 0x2f, 0xeb, 0xbf, 0x2a, 0x2a, 0xba, 0x3e,
  0xf6, 0x22, 0xcf, 0xbd, 0x36, 0x67, 0x31, 0x3e, 0xf4, 0x0d, 0xfd, 0xbe,
  0x1d, 0x25, 0x8d, 0xbe, 0xcf, 0x81, 0xf7, 0x3e, 0x2d, 0x01, 0x73, 0xbd,
  0x81, 0x1c, 0x24, 0x3f, 0x39, 0xde, 0xde, 0x3e, 0x8d, 0x87, 0x2b, 0xbe,
  0xd9, 0x65, 0x83, 0x3f, 0xc7, 0x52, 0x1d, 0x3f, 0x4a, 0x96, 0x6a, 0x3f,
  0x76, 0x03, 0x40, 0xbf, 0x35, 0xda, 0x3b, 0x3f, 0x4d, 0xe5, 0x1e, 0x3b,
  0x10, 0x78, 0x11, 0x3f, 0x5d, 0x83, 0x10, 0x3f, 0x45, 0x42, 0x6e, 0x3e,
  0x89, 0x02, 0x4a, 0xbf, 0xea, 0x22, 0x64, 0x3e, 0xf1, 0xf0, 0x58, 0x3d,
  0x05, 0xdf, 0x92, 0xbe, 0xfc, 0xe1, 0xcb, 0x3e, 0x13, 0x55, 0x2c, 0xbf,
  0x0a, 0x29, 0x90, 0xbe, 0x8c, 0x8b, 0x5c, 0xbf, 0x32, 0x83, 0x55, 0xbf,
  0x7f, 0x84, 0x9e, 0x3e, 0x53, 0xd6, 0xf3, 0x3e, 0xdf, 0x30, 0xc3, 0x3d,
  0xe3, 0xd0, 0x0b, 0xbe, 0x23, 0x02, 0x21, 0xbf, 0x20, 0x3e, 0x8b, 0xbf,
  0x60, 0x6e, 0xff, 0xbd, 0x0e, 0xfe, 0x43, 0x3f, 0xd0, 0x38, 0x5a, 0xbf,
  0x54, 0x0f, 0xb8, 0xbe, 0xe1, 0x87, 0x43, 0xbe, 0x27, 0x5a, 0x73, 0xbe,
  0xb2, 0x54, 0x2a, 0x3e, 0xda, 0x48, 0xde, 0xbe, 0xa0, 0x9e, 0x31, 0xbf,
  0x77, 0x88, 0xa4, 0xbc, 0xf7, 0x66, 0x93, 0xbd, 0xf5, 0x1f, 0x40, 0xbf,
  0x67, 0x1d, 0x48, 0xbf, 0x63, 0xe8, 0x08, 0x3f, 0xaa, 0x65, 0x57, 0x3e,
  0x94, 0x71, 0x11, 0x3e, 0xf1, 0x3a, 0x84, 0x3e, 0xcb, 0x86, 0xf9, 0x3e,
  0x4b, 0x2c, 0x44, 0x3f, 0xa7, 0x55, 0xfc, 0xbe, 0xa5, 0xc0, 0x4c, 0xbe,
  0x01, 0x9b, 0x91, 0xbe, 0x2c, 0x82, 0x81, 0xbe, 0x54, 0xf9, 0xd2, 0xbe,
  0x32, 0x76, 0x02, 0x3f, 0x01, 0x83, 0x86, 0xbe, 0x8c, 0x34, 0x55, 0x3f,
  0x50, 0xe9, 0xc8, 0xbe, 0xf8, 0x81, 0x65, 0x3e, 0xa9, 0x59, 0x8f, 0xbe,
  0xe5, 0xcd, 0x91, 0x3f, 0xfb, 0x40, 0x6d, 0x3e, 0xe8, 0x29, 0x22, 0xbf,
  0xb9, 0x0c, 0x18, 0xbf, 0xc7, 0x33, 0xfa, 0xbe, 0xe9, 0xbf, 0xe9, 0x3e,
  0xdc, 0x83, 0xec, 0x3f, 0x7c, 0x46, 0xfc, 0xbe, 0xcb, 0xc4, 0x6f, 0xbe,
  0x19, 0x3d, 0xaa, 0x3f, 0x1c, 0xb0, 0x21, 0x3f, 0x86, 0xc5, 0x68, 0x3f,
  0x95, 0xd2, 0xb1, 0x3f, 0xb4, 0x04, 0x86, 0x3f, 0x0b, 0xf2, 0x16, 0xbf,
  0x9f, 0x68, 0xe8, 0xbe, 0xa2, 0xc2, 0x7e, 0x3e, 0x75, 0x97, 0xa3, 0xbf,
  0xcb, 0xcd, 0x2b, 0xbe, 0x21, 0x20, 0x01, 0xbf, 0x06, 0x34, 0xfe, 0x3e,
  0xb9, 0xb9, 0x69, 0xbf, 0xdc, 0x7b, 0xcc, 0xbe, 0x34, 0xb0, 0x32, 0x3f,
  0x21, 0x8e, 0x4f, 0x3e, 0x5e, 0x84, 0xa6, 0xbf, 0xe2, 0x55, 0x4b, 0x3f,
  0x0d, 0x14, 0x80, 0x3f, 0x0b, 0x6a, 0xa7, 0x3d, 0x71, 0x04, 0x4d, 0xbf,
  0x81, 0x72, 0xc8, 0xbd, 0x50, 0x50, 0x47, 0xbf, 0xc2, 0x91, 0x2e, 0x3f,
  0x6a, 0x58, 0x06, 0xbf, 0xc9, 0x72, 0x00, 0x3f, 0x00, 0xbc, 0xea, 0xbe,
  0xc6, 0xea, 0x82, 0x3f, 0x8a, 0x50, 0x22, 0xbf, 0xa2, 0xa1, 0x05, 0x3f,
  0x87, 0xae, 0x16, 0xbf, 0xde, 0x77, 0xbd, 0x3e, 0x35, 0x94, 0xa4, 0x3e,
  0x64, 0x8a, 0xff, 0xbf, 0x6d, 0x75, 0xb8, 0xbf, 0xdb, 0xa3, 0xd0, 0x3e,
  0x42, 0x09, 0xe0, 0x3f, 0x29, 0x3f, 0x47, 0xbf, 0xdd, 0x02, 0x40, 0xbe,
  0xa6, 0xea, 0x27, 0x3f, 0xc8, 0x1d, 0x71, 0x3d, 0x88, 0xc7, 0x5d, 0x3f,
  0xcf, 0x19, 0xfb, 0x3d, 0x33, 0x7e, 0xb2, 0x3e, 0xa4, 0x35, 0x80, 0xbe,
  0x77, 0xa1, 0x11, 0xbf, 0xf5, 0x3a, 0x96, 0x3f, 0x7d, 0x56, 0xd3, 0xbd,
  0x3d, 0xea, 0x5e, 0xbe, 0x53, 0xc9, 0x58, 0x3e, 0xfe, 0x33, 0x8c, 0x3f,
  0x65, 0xb1, 0x26, 0x3f, 0x4c, 0xad, 0x3e, 0xbe, 0x40, 0x6f, 0xf1, 0x3e,
  0x8b, 0x54, 0x3f, 0xbe, 0xd5, 0x10, 0x78, 0xbe, 0x92, 0x77, 0xf4, 0x3d,
  0xd6, 0xee, 0x61, 0xbf, 0x21, 0xb9, 0xaf, 0x3d, 0x66, 0x0f, 0xab, 0x3e,
  0xdb, 0x27, 0x41, 0xbf, 0x48, 0x6b, 0x9f, 0xbe, 0x2b, 0x9c, 0x5b, 0xbc,
  0x10, 0xa3, 0xe3, 0x3e, 0xb4, 0x12, 0xa7, 0x3e, 0x08, 0xaf, 0x8d, 0x3c,
  0xdd, 0x6e, 0x67, 0xbd, 0xbb, 0xf5, 0x92, 0x3e, 0x26, 0xc9, 0xd2, 0x3f,
  0x7a, 0x85, 0xb7, 0x3e, 0x0e, 0x6d, 0xe1, 0x3f, 0x58, 0x56, 0x5e, 0xbf,
  0xbd, 0x17, 0x06, 0x3f, 0x46, 0x3c, 0x64, 0x3f, 0x57, 0x28, 0x43, 0xbe,
  0xa2, 0x6f, 0xd9, 0xbe, 0x55, 0x3b, 0xc9, 0x3d, 0x23, 0x1d, 0x9e, 0x3f,
  0xfb, 0x43, 0x89, 0x3f, 0x43, 0x02, 0x7f, 0xbd, 0x93, 0x02, 0x03, 0xbe,
  0xc9, 0xd4, 0x77, 0xbf, 0x86, 0xe8, 0xd2, 0xbb, 0x46, 0x34, 0x32, 0xbf,
  0xcf, 0x37, 0x33, 0x3f, 0x59, 0x29, 0xa6, 0x3e, 0x9d, 0x2e, 0x48, 0xbd,
  0xc8, 0xf3, 0xa2, 0x3e, 0x12, 0x36, 0x40, 0xbd, 0xaf, 0x27, 0x0d, 0xbf,
  0x8f, 0x8f, 0xcc, 0x3f, 0xf3, 0x9b, 0xf0, 0xbe, 0x3d, 0x30, 0x46, 0xbe,
  0x14, 0xcf, 0xec, 0xbe, 0x8e, 0xb9, 0xd4, 0x3e, 0xab, 0x4d, 0xe1, 0x3d,
  0x05, 0xbe, 0x86, 0x3e, 0xc6, 0xef, 0x36, 0xbf, 0x66, 0x0e, 0x07, 0xbf,
  0x5f, 0x6c, 0x0e, 0x3f, 0x4b, 0xb2, 0x55, 0xbf, 0x12, 0x0e, 0xd3, 0xbf,
  0x12, 0x89, 0xb0, 0x3f, 0xb5, 0x35, 0xd9, 0xbe, 0xf3, 0xc6, 0x80, 0x3e,
  0xd7, 0xd4, 0x93, 0xbd, 0xef, 0x7d, 0xb3, 0xbe, 0x7b, 0xe4, 0xac, 0xbd,
  0xa4, 0xe2, 0xb7, 0x3e, 0xdd, 0xe7, 0x96, 0xbf, 0xa4, 0xb3, 0x6c, 0xbe,
  0x29, 0x8f, 0x10, 0x3f, 0x02, 0xdc, 0x94, 0xbf, 0xf1, 0xf4, 0x00, 0xc0,
  0x6a, 0x06, 0x84, 0x3f, 0x79, 0xc7, 0x01, 0x3f, 0x26, 0x26, 0x65, 0xbf,
  0xcc, 0x7e, 0x0e, 0xbe, 0x3f, 0xaf, 0x30, 0x3f, 0x98, 0x12, 0x88, 0xbd,
  0x5c, 0x24, 0x5a, 0x3e, 0x7e, 0x9c, 0x2b, 0x3f, 0xac, 0xd0, 0xa9, 0x3d,
  0xc0, 0x1a, 0x8b, 0x3f, 0xf8, 0xda, 0x49, 0xbf, 0x4d, 0xe8, 0x16, 0xbf,
  0x44, 0xc9, 0x90, 0xbf, 0x1f, 0xfe, 0x80, 0x3e, 0x35, 0xd5, 0x16, 0xbf,
  0x7f, 0x09, 0xc0, 0xbe, 0x09, 0x9b, 0x7a, 0xbe, 0x98, 0xb1, 0xb2, 0x3f,
  0xa6, 0x5d, 0xb8, 0x3e, 0xe5, 0xa8, 0xd4, 0xbe, 0xc6, 0xb8, 0x8d, 0x3e,
  0x00, 0x75, 0xc2, 0x3a, 0x3b, 0xd5, 0x0f, 0x3f, 0x2c, 0x66, 0x42, 0xbe,
  0x63, 0x4c, 0x09, 0xbf, 0x41, 0xc0, 0x02, 0x40, 0xa1, 0x0c, 0xd3, 0x38,
  0x8b, 0x09, 0xd4, 0x3d, 0x5b, 0x81, 0x2f, 0xbf, 0x78, 0xd7, 0xf4, 0x3e,
  0xaa, 0x79, 0xe4, 0x3d, 0x94, 0xe3, 0xc2, 0x3d, 0x83, 0xfe, 0x9c, 0x3e,
  0xf9, 0x43, 0x7f, 0x3f, 0x27, 0xe6, 0x3b, 0xbf, 0x5c, 0xd8, 0xa7, 0xbf,
  0x49, 0x3e, 0xef, 0xbe, 0xf2, 0xf9, 0xff, 0xff, 0x04, 0x00, 0x00, 0x00,
  0x40, 0x02, 0x00, 0x00, 0xea, 0xab, 0x98, 0x3e, 0x3b, 0x30, 0xb6, 0x3e,
  0xba, 0xf6, 0x6d, 0xbd, 0x25, 0x62, 0x3d, 0x3d, 0x9e, 0x9f, 0x42, 0xbd,
  0x4e, 0xcd, 0xaa, 0x3e, 0xd0, 0x58, 0x24, 0xbe, 0x86, 0x28, 0xa6, 0x3e,
  0x47, 0x71, 0xdc, 0xbe, 0x4c, 0x2b, 0x8e, 0x3e, 0x90, 0x57, 0xc2, 0xbe,
  0xd8, 0xb8, 0xb4, 0x3c, 0xab, 0x6d, 0x4b, 0xbe, 0xf2, 0xc4, 0x7e, 0x3d,
  0x42, 0xf7, 0x78, 0x3e, 0xbe, 0xa1, 0x5c, 0xbe, 0xcc, 0x8e, 0x26, 0xbe,
  0xf8, 0x22, 0x9a, 0xbe, 0xc1, 0x8d, 0x93, 0xbd, 0x1c, 0x38, 0x74, 0xbd,
  0xa1, 0xec, 0x52, 0x3e, 0x82, 0x5a, 0x1e, 0xbe, 0xc6, 0xa5, 0xa0, 0xbe,
  0x46, 0x77, 0xcd, 0xbd, 0x4c, 0x6c, 0xbe, 0x3c, 0xca, 0xb8, 0x5c, 0xbd,
  0xc4, 0x5e, 0xc3, 0x3d, 0xc0, 0xfb, 0xcf, 0xbe, 0x3c, 0x7e, 0xa8, 0x3d,
  0xf5, 0x75, 0xfa, 0x3c, 0x84, 0xb9, 0x80, 0xbe, 0xa6, 0xeb, 0xed, 0xbe,
  0x49, 0xbd, 0x01, 0xbe, 0x85, 0x42, 0x80, 0x3e, 0x35, 0xe6, 0x03, 0xbe,
  0x01, 0xd9, 0x79, 0x3d, 0x3d, 0x4d, 0xd9, 0x3d, 0x05, 0xaa, 0x62, 0xbe,
  0xf1, 0x81, 0x47, 0xbe, 0x1b, 0x52, 0x2a, 0x3d, 0x36, 0x8f, 0xec, 0xbe,
  0xc9, 0xd0, 0x00, 0xbe, 0x16, 0xda, 0xf4, 0xbd, 0x26, 0x66, 0x08, 0xbe,
  0x8c, 0xbd, 0xf4, 0x3d, 0xde, 0x93, 0x57, 0xbd, 0xc5, 0x2f, 0x2e, 0x3e,
  0x0c, 0x70, 0x42, 0x3d, 0x5f, 0x83, 0x6a, 0x3d, 0x11, 0x9a, 0x40, 0xbd,
  0xd1, 0x85, 0x8e, 0xbe, 0x03, 0xb5, 0x93, 0xbc, 0xab, 0xcc, 0xbe, 0xbe,
  0xb6, 0x4a, 0xe4, 0xbd, 0x37, 0x94, 0x28, 0x3e, 0x0f, 0xb7, 0x1d, 0x3e,
  0x0d, 0xee, 0xd9, 0x3e, 0x6c, 0x1a, 0x36, 0x3e, 0x59, 0x89, 0x8a, 0xbe,
  0x7c, 0x1c, 0x0e, 0x3e, 0xdb, 0x29, 0xa0, 0xbe, 0xad, 0x5e, 0x14, 0x3e,
  0x7e, 0x8b, 0x34, 0xbe, 0xd6, 0xa7, 0x3b, 0x3e, 0x71, 0x9d, 0x8c, 0x3e,
  0x04, 0x81, 0x82, 0xbd, 0x36, 0x4e, 0x7e, 0x3e, 0x5b, 0x35, 0xda, 0xbd,
  0x11, 0xd3, 0x27, 0x3e, 0xfb, 0x08, 0x29, 0x3e, 0x5d, 0x7e, 0x2a, 0xbe,
  0x2e, 0xd3, 0xc0, 0x3d, 0x77, 0x2d, 0x51, 0x3e, 0xab, 0xf9, 0xa4, 0x3e,
  0xdf, 0xf1, 0x16, 0x3e, 0xb9, 0x3d, 0x63, 0x3e, 0x47, 0x46, 0x9c, 0xbc,
  0xe3, 0x37, 0xe0, 0x3d, 0x63, 0x95, 0x2a, 0xbe, 0x0f, 0xab, 0xa5, 0xbe,
  0x64, 0x7a, 0x09, 0xbf, 0x8b, 0x53, 0x3f, 0xbe, 0x95, 0x5e, 0xa4, 0x3d,
  0x66, 0x7d, 0x13, 0xbf, 0x01, 0x91, 0xcc, 0xbe, 0x20, 0x74, 0x54, 0xbe,
  0x25, 0x39, 0x40, 0xbd, 0x92, 0x49, 0x60, 0x3e, 0xcb, 0x84, 0xac, 0x3e,
  0x27, 0x2d, 0xac, 0x3d, 0x37, 0xc9, 0x7b, 0xbd, 0xcf, 0x84, 0xf7, 0xbd,
  0x8f, 0xd7, 0x85, 0xbe, 0xdd, 0xae, 0xe7, 0xba, 0x84, 0x84, 0x91, 0xbd,
  0x98, 0x18, 0xce, 0xbe, 0x39, 0x31, 0x06, 0x3e, 0x2d, 0xe5, 0x16, 0x3e,
  0xad, 0xa6, 0x49, 0xbe, 0x33, 0x57, 0x99, 0x3e, 0x2d, 0x58, 0xab, 0x3e,
  0xc6, 0x58, 0xb6, 0xbe, 0xbc, 0x31, 0x8b, 0xbe, 0x5b, 0x03, 0xee, 0x3d,
  0xa4, 0xcc, 0x88, 0x3d, 0x0b, 0x2b, 0x33, 0xbe, 0xc0, 0x5e, 0x25, 0xbf,
  0x91, 0xd4, 0xae, 0xbe, 0xf8, 0xf6, 0x2c, 0xbd, 0x5a, 0x3d, 0x7c, 0xbe,
  0xed, 0x1d, 0x0b, 0xbe, 0x31, 0x10, 0xec, 0xbd, 0x40, 0x8f, 0xeb, 0xbc,
  0xd2, 0x3d, 0x21, 0xbe, 0xb4, 0x6c, 0x3b, 0x3d, 0xdc, 0xd7, 0xf2, 0x3c,
  0x17, 0x85, 0x81, 0xbe, 0x94, 0xfe, 0x75, 0x3d, 0xed, 0x9e, 0x12, 0xbe,
  0x81, 0x72, 0xd7, 0x3d, 0xc7, 0xf1, 0x93, 0x3d, 0xdc, 0x37, 0x0c, 0xbf,
  0x61, 0x85, 0xc5, 0x3b, 0x32, 0x50, 0x7f, 0x3d, 0x0a, 0xef, 0x3b, 0xbe,
  0x82, 0x70, 0xf5, 0xbc, 0x36, 0x9a, 0xa0, 0xbe, 0x04, 0x7e, 0xa2, 0xbc,
  0x48, 0xd1, 0x49, 0xbc, 0x5c, 0x75, 0x9f, 0xbd, 0xbc, 0xfe, 0xde, 0x3e,
  0xb2, 0x44, 0xbc, 0xbd, 0x45, 0x51, 0x03, 0xbe, 0x25, 0x0d, 0xab, 0xbe,
  0x3a, 0xf4, 0xea, 0x3c, 0xee, 0xe8, 0xdc, 0x3c, 0x79, 0x5a, 0x81, 0xbe,
  0x2e, 0x80, 0xb8, 0xbb, 0xb7, 0x82, 0x6a, 0xbe, 0xe3, 0x29, 0x86, 0x3d,
  0x24, 0x32, 0xd0, 0xbe, 0xc2, 0x18, 0x74, 0x3e, 0x26, 0x69, 0x1c, 0x3f,
  0x7b, 0xf8, 0x5c, 0x3c, 0x3e, 0xfc, 0xff, 0xff, 0x04, 0x00, 0x00, 0x00,
  0x20, 0x01, 0x00, 0x00, 0x63, 0xc0, 0x02, 0xbe, 0x12, 0xd6, 0x34, 0x3e,
  0x6d, 0xa0, 0xdd, 0xbe, 0xda, 0x68, 0x82, 0x3e, 0x3c, 0xc8, 0x18, 0xbe,
  0x56, 0x3d, 0xba, 0x3e, 0xb9, 0xa4, 0x86, 0x3e, 0xd1, 0x8f, 0x0b, 0x3e,
  0x26, 0x72, 0x12, 0xbe, 0x6f, 0x01, 0x58, 0x3e, 0xa0, 0xa5, 0x98, 0x3e,
  0x75, 0xce, 0x87, 0xbe, 0x7f, 0xf5, 0x46, 0x3c, 0x5c, 0xb7, 0x0c, 0x3e,
  0xa1, 0xcb, 0x46, 0xbe, 0x13, 0x8c, 0x05, 0x3f, 0x49, 0x51, 0x53, 0x3f,
  0x79, 0x80, 0x86, 0xbf, 0x69, 0x98, 0xc9, 0xbe, 0xa6, 0xd0, 0x55, 0xbe,
  0xf8, 0xae, 0x46, 0xbe, 0x66, 0x08, 0xa2, 0xbe, 0x58, 0x08, 0x89, 0xbf,
  0x99, 0x14, 0xc3, 0x3d, 0x39, 0x13, 0xcb, 0xbe, 0x53, 0xc3, 0xa5, 0xbe,
  0x3f, 0x8e, 0xd7, 0xbd, 0x87, 0x20, 0x49, 0x3e, 0xd3, 0x52, 0x8c, 0x3e,
  0xdb, 0x38, 0x14, 0x3f, 0x94, 0xa5, 0x1d, 0x3f, 0xee, 0x87, 0x34, 0x3f,
  0xfb, 0x8a, 0x47, 0x3f, 0x6e, 0xc1, 0x92, 0x3c, 0x91, 0xbd, 0xb6, 0x3e,
  0x4f, 0xfe, 0xc7, 0xbd, 0x7a, 0x90, 0x9e, 0x3c, 0x22, 0xf0, 0x93, 0x3e,
  0x48, 0x20, 0x34, 0x3f, 0xb6, 0x5e, 0x08, 0xbf, 0x28, 0xa2, 0x3c, 0x3f,
  0xe4, 0xfe, 0xe2, 0xbe, 0x45, 0x7f, 0xce, 0x3b, 0x9a, 0xac, 0x62, 0xbf,
  0x48, 0x62, 0x7f, 0xbe, 0xb0, 0xd2, 0x9c, 0x3d, 0x5b, 0x7b, 0xce, 0xbe,
  0xd5, 0xc5, 0x30, 0xbe, 0x08, 0x58, 0x35, 0xbf, 0x9c, 0xf1, 0x9c, 0xbe,
  0xf7, 0x39, 0x6d, 0xbf, 0x07, 0x49, 0xd9, 0x3e, 0xf8, 0xc2, 0x27, 0x3f,
  0x9c, 0x1f, 0x4d, 0x3e, 0x75, 0x8e, 0x80, 0x3e, 0x32, 0x49, 0x29, 0x3d,
  0x3b, 0x1e, 0xd5, 0xbd, 0x6b, 0xaa, 0x20, 0x3e, 0xb5, 0x09, 0x59, 0x3e,
  0xb5, 0x76, 0x6d, 0x3e, 0x9b, 0x38, 0x73, 0x3e, 0x69, 0x6c, 0x68, 0x3e,
  0x15, 0xa0, 0xa2, 0xbe, 0x2b, 0xce, 0xe6, 0x3e, 0xdc, 0x85, 0x17, 0xbe,
  0xa8, 0xef, 0xcb, 0xbe, 0xe3, 0x5e, 0xb2, 0xbe, 0x36, 0x3a, 0x20, 0x3f,
  0x29, 0xf2, 0x8e, 0x3e, 0x57, 0xb5, 0xe6, 0x3e, 0x06, 0x61, 0x84, 0xbe,
  0xb4, 0x6a, 0xb1, 0x3e, 0x6a, 0xfd, 0xff, 0xff, 0x04, 0x00, 0x00, 0x00,
  0x90, 0x00, 0x00, 0x00, 0xee, 0x57, 0x38, 0xbe, 0xfc, 0x08, 0xb4, 0xbe,
  0x1b, 0xeb, 0x76, 0x3e, 0x3a, 0x9a, 0x45, 0xbe, 0xea, 0x5a, 0x7f, 0xbd,
  0xbb, 0x8a, 0xf1, 0xbc, 0x67, 0xff, 0x42, 0xbe, 0x7f, 0x1d, 0x05, 0xbe,
  0xd7, 0x23, 0xa3, 0x3d, 0xa1, 0xe7, 0x30, 0x3e, 0x23, 0x69, 0xbc, 0xbc,
  0xe7, 0x49, 0x99, 0x3d, 0xe8, 0x15, 0x3a, 0x3e, 0xb1, 0x0c, 0x56, 0x3e,
  0x47, 0x72, 0x8b, 0x3e, 0xd6, 0x1d, 0x47, 0x3e, 0xbf, 0x61, 0x78, 0x3e,
  0xda, 0xf6, 0xa9, 0x3d, 0x08, 0x3d, 0x14, 0x3e, 0x9c, 0x47, 0x4c, 0x3e,
  0xc4, 0x80, 0xd3, 0x3d, 0x0d, 0x09, 0x91, 0x3d, 0x74, 0x90, 0xf4, 0xbd,
  0xed, 0x61, 0x8c, 0x3e, 0xde, 0xa8, 0x45, 0xbe, 0x4d, 0xc5, 0x52, 0x3e,
  0x7a, 0x84, 0x38, 0xbe, 0x59, 0x72, 0xd6, 0xbd, 0xce, 0x3e, 0x92, 0xbe,
  0x23, 0x8d, 0xa6, 0x3d, 0x08, 0x9e, 0x9e, 0x3c, 0x95, 0x40, 0xd4, 0xbd,
  0x7d, 0x7a, 0x08, 0xbe, 0x32, 0x80, 0xed, 0xbe, 0x02, 0x30, 0x95, 0xbe,
  0x5c, 0x48, 0x8f, 0x3e, 0x06, 0xfe, 0xff, 0xff, 0x04, 0x00, 0x00, 0x00,
  0x48, 0x00, 0x00, 0x00, 0xec, 0x84, 0x83, 0x3d, 0x3d, 0xbb, 0xf6, 0xbe,
  0xa5, 0xc4, 0xf1, 0x3e, 0x94, 0x46, 0x4b, 0xbf, 0x12, 0x99, 0x69, 0x3e,
  0x18, 0x55, 0x92, 0x3e, 0x46, 0x6c, 0x8b, 0xbf, 0x4f, 0x6e, 0x9b, 0xbf,
  0x36, 0x2f, 0x02, 0x3e, 0xe6, 0x11, 0xbf, 0x3f, 0xe4, 0x39, 0x54, 0xbf,
  0x82, 0xf9, 0xb3, 0xbf, 0xf4, 0x98, 0x65, 0x3d, 0xa3, 0x78, 0x3e, 0xc0,
  0xef, 0xcb, 0xf2, 0x3e, 0xd8, 0x12, 0xd8, 0xbf, 0x17, 0x72, 0x30, 0x40,
  0x92, 0x1f, 0xd0, 0xbf, 0x5a, 0xfe, 0xff, 0xff, 0x04, 0x00, 0x00, 0x00,
  0x20, 0x00, 0x00, 0x00, 0x82, 0x60, 0x38, 0xbf, 0x9f, 0xa2, 0x06, 0x3e,
  0xf5, 0x6c, 0x73, 0xbe, 0x47, 0x97, 0xb1, 0x3d, 0x99, 0xe9, 0xf5, 0x3d,
  0x84, 0xfe, 0x81, 0xbd, 0x5e, 0x5c, 0x4d, 0xbd, 0xf8, 0xdc, 0x3e, 0x3f,
  0x86, 0xfe, 0xff, 0xff, 0x04, 0x00, 0x00, 0x00, 0x20, 0x00, 0x00, 0x00,
  0x32, 0x3c, 0x4b, 0x3e, 0x32, 0xcc, 0xd4, 0x3e, 0xea, 0x1f, 0x16, 0x3f,
  0x14, 0x9a, 0x90, 0xbf, 0x97, 0xc7, 0x55, 0x3f, 0xa0, 0xab, 0xe7, 0xbf,
  0xa7, 0x19, 0x9d, 0x3f, 0x28, 0x8a, 0x2f, 0x3e, 0xb2, 0xfe, 0xff, 0xff,
  0x04, 0x00, 0x00, 0x00, 0x10, 0x00, 0x00, 0x00, 0x10, 0x70, 0x7f, 0x3e,
  0xaa, 0xe0, 0xcc, 0x3d, 0xc3, 0x51, 0x32, 0x3f, 0x4e, 0xc9, 0x98, 0x3f,
  0xce, 0xfe, 0xff, 0xff, 0x04, 0x00, 0x00, 0x00, 0x10, 0x00, 0x00, 0x00,
  0xfb, 0xd1, 0x01, 0x3f, 0x86, 0xf9, 0xc5, 0x3d, 0xfa, 0xd0, 0x81, 0x3e,
  0x26, 0xda, 0x0e, 0xbe, 0xea, 0xfe, 0xff, 0xff, 0x04, 0x00, 0x00, 0x00,
  0x08, 0x00, 0x00, 0x00, 0x63, 0xa7, 0x46, 0x3f, 0xcd, 0x31, 0x0a, 0xbd,
  0xfe, 0xfe, 0xff, 0xff, 0x04, 0x00, 0x00, 0x00, 0x08, 0x00, 0x00, 0x00,
  0x3c, 0x22, 0x98, 0x3f, 0xc1, 0xb3, 0xe8, 0x3f, 0x12, 0xff, 0xff, 0xff,
  0x04, 0x00, 0x00, 0x00, 0x24, 0x00, 0x00, 0x00, 0x7a, 0xa3, 0x5b, 0x3a,
  0x7e, 0x20, 0x9c, 0x3b, 0x76, 0x2b, 0xed, 0xbb, 0x9d, 0xb9, 0x43, 0x3b,
  0xa9, 0x51, 0x81, 0xbb, 0x57, 0xa3, 0x83, 0xbb, 0x60, 0x92, 0x22, 0xbb,
  0xd8, 0x2e, 0x6d, 0x3a, 0x12, 0xe4, 0x8f, 0x3b, 0x42, 0xff, 0xff, 0xff,
  0x04, 0x00, 0x00, 0x00, 0x04, 0x00, 0x00, 0x00, 0x19, 0xd0, 0x83, 0x3f,
  0xa0, 0xe5, 0xff, 0xff, 0xa4, 0xe5, 0xff, 0xff, 0x0f, 0x00, 0x00, 0x00,
  0x4d, 0x4c, 0x49, 0x52, 0x20, 0x43, 0x6f, 0x6e, 0x76, 0x65, 0x72, 0x74,
  0x65, 0x64, 0x2e, 0x00, 0x01, 0x00, 0x00, 0x00, 0x14, 0x00, 0x00, 0x00,
  0x00, 0x00, 0x0e, 0x00, 0x18, 0x00, 0x14, 0x00, 0x10, 0x00, 0x0c, 0x00,
  0x08, 0x00, 0x04, 0x00, 0x0e, 0x00, 0x00, 0x00, 0x14, 0x00, 0x00, 0x00,
  0x1c, 0x00, 0x00, 0x00, 0x18, 0x04, 0x00, 0x00, 0x1c, 0x04, 0x00, 0x00,
  0x20, 0x04, 0x00, 0x00, 0x04, 0x00, 0x00, 0x00, 0x6d, 0x61, 0x69, 0x6e,
  0x00, 0x00, 0x00, 0x00, 0x0e, 0x00, 0x00, 0x00, 0xa8, 0x03, 0x00, 0x00,
  0x48, 0x03, 0x00, 0x00, 0xe4, 0x02, 0x00, 0x00, 0x90, 0x02, 0x00, 0x00,
  0x48, 0x02, 0x00, 0x00, 0x00, 0x02, 0x00, 0x00, 0xbc, 0x01, 0x00, 0x00,
  0x78, 0x01, 0x00, 0x00, 0x34, 0x01, 0x00, 0x00, 0xf0, 0x00, 0x00, 0x00,
  0xc8, 0x00, 0x00, 0x00, 0x78, 0x00, 0x00, 0x00, 0x40, 0x00, 0x00, 0x00,
  0x04, 0x00, 0x00, 0x00, 0xfa, 0xfc, 0xff, 0xff, 0x1c, 0x00, 0x00, 0x00,
  0x00, 0x00, 0x00, 0x09, 0x1c, 0x00, 0x00, 0x00, 0x20, 0x00, 0x00, 0x00,
  0x05, 0x00, 0x00, 0x00, 0x00, 0x00, 0x06, 0x00, 0x08, 0x00, 0x04, 0x00,
  0x06, 0x00, 0x00, 0x00, 0x00, 0x00, 0x80, 0x3f, 0x01, 0x00, 0x00, 0x00,
  0x21, 0x00, 0x00, 0x00, 0x01, 0x00, 0x00, 0x00, 0x20, 0x00, 0x00, 0x00,
  0x32, 0xfd, 0xff, 0xff, 0x14, 0x00, 0x00, 0x00, 0x00, 0x00, 0x00, 0x08,
  0x10, 0x00, 0x00, 0x00, 0x14, 0x00, 0x00, 0x00, 0x04, 0x00, 0x00, 0x00,
  0x84, 0xe6, 0xff, 0xff, 0x01, 0x00, 0x00, 0x00, 0x20, 0x00, 0x00, 0x00,
  0x03, 0x00, 0x00, 0x00, 0x1f, 0x00, 0x00, 0x00, 0x13, 0x00, 0x00, 0x00,
  0x11, 0x00, 0x00, 0x00, 0x66, 0xfd, 0xff, 0xff, 0x1c, 0x00, 0x00, 0x00,
  0x00, 0x00, 0x00, 0x08, 0x1c, 0x00, 0x00, 0x00, 0x20, 0x00, 0x00, 0x00,
  0x04, 0x00, 0x00, 0x00, 0x00, 0x00, 0x06, 0x00, 0x08, 0x00, 0x07, 0x00,
  0x06, 0x00, 0x00, 0x00, 0x00, 0x00, 0x00, 0x01, 0x01, 0x00, 0x00, 0x00,
  0x1f, 0x00, 0x00, 0x00, 0x03, 0x00, 0x00, 0x00, 0x1e, 0x00, 0x00, 0x00,
  0x12, 0x00, 0x00, 0x00, 0x10, 0x00, 0x00, 0x00, 0x00, 0x00, 0x0a, 0x00,
  0x10, 0x00, 0x0c, 0x00, 0x08, 0x00, 0x04, 0x00, 0x0a, 0x00, 0x00, 0x00,
  0x0c, 0x00, 0x00, 0x00, 0x10, 0x00, 0x00, 0x00, 0x03, 0x00, 0x00, 0x00,
  0x01, 0x00, 0x00, 0x00, 0x1e, 0x00, 0x00, 0x00, 0x02, 0x00, 0x00, 0x00,
  0x1d, 0x00, 0x00, 0x00, 0x0f, 0x00, 0x00, 0x00, 0xd6, 0xfd, 0xff, 0xff,
  0x14, 0x00, 0x00, 0x00, 0x00, 0x00, 0x00, 0x05, 0x24, 0x00, 0x00, 0x00,
  0x28, 0x00, 0x00, 0x00, 0x02, 0x00, 0x00, 0x00, 0x76, 0xfe, 0xff, 0xff,
  0x02, 0x00, 0x00, 0x00, 0x02, 0x00, 0x00, 0x00, 0x02, 0x00, 0x00, 0x00,
  0x02, 0x00, 0x00, 0x00, 0x00, 0x00, 0x00, 0x01, 0x01, 0x00, 0x00, 0x00,
  0x1d, 0x00, 0x00, 0x00, 0x01, 0x00, 0x00, 0x00, 0x1c, 0x00, 0x00, 0x00,
  0x16, 0xfe, 0xff, 0xff, 0x14, 0x00, 0x00, 0x00, 0x00, 0x00, 0x00, 0x01,
  0x1c, 0x00, 0x00, 0x00, 0x20, 0x00, 0x00, 0x00, 0x01, 0x00, 0x00, 0x00,
  0x06, 0xfe, 0xff, 0xff, 0x01, 0x00, 0x00, 0x00, 0x01, 0x00, 0x00, 0x00,
  0x00, 0x00, 0x00, 0x01, 0x01, 0x00, 0x00, 0x00, 0x1c, 0x00, 0x00, 0x00,
  0x03, 0x00, 0x00, 0x00, 0x1b, 0x00, 0x00, 0x00, 0x0e, 0x00, 0x00, 0x00,
  0x08, 0x00, 0x00, 0x00, 0x56, 0xfe, 0xff, 0xff, 0x14, 0x00, 0x00, 0x00,
  0x00, 0x00, 0x00, 0x01, 0x1c, 0x00, 0x00, 0x00, 0x20, 0x00, 0x00, 0x00,
  0x01, 0x00, 0x00, 0x00, 0x46, 0xfe, 0xff, 0xff, 0x01, 0x00, 0x00, 0x00,
  0x01, 0x00, 0x00, 0x00, 0x00, 0x00, 0x00, 0x01, 0x01, 0x00, 0x00, 0x00,
  0x1b, 0x00, 0x00, 0x00, 0x03, 0x00, 0x00, 0x00, 0x1a, 0x00, 0x00, 0x00,
  0x0d, 0x00, 0x00, 0x00, 0x07, 0x00, 0x00, 0x00, 0x96, 0xfe, 0xff, 0xff,
  0x14, 0x00, 0x00, 0x00, 0x00, 0x00, 0x00, 0x05, 0x24, 0x00, 0x00, 0x00,
  0x28, 0x00, 0x00, 0x00, 0x02, 0x00, 0x00, 0x00, 0x36, 0xff, 0xff, 0xff,
  0x02, 0x00, 0x00, 0x00, 0x02, 0x00, 0x00, 0x00, 0x02, 0x00, 0x00, 0x00,
  0x02, 0x00, 0x00, 0x00, 0x00, 0x00, 0x00, 0x01, 0x01, 0x00, 0x00, 0x00,
  0x1a, 0x00, 0x00, 0x00, 0x01, 0x00, 0x00, 0x00, 0x19, 0x00, 0x00, 0x00,
  0xd6, 0xfe, 0xff, 0xff, 0x14, 0x00, 0x00, 0x00, 0x00, 0x00, 0x00, 0x01,
  0x20, 0x00, 0x00, 0x00, 0x24, 0x00, 0x00, 0x00, 0x01, 0x00, 0x00, 0x00,
  0x28, 0xff, 0xff, 0xff, 0x00, 0x00, 0x00, 0x01, 0x01, 0x00, 0x00, 0x00,
  0x01, 0x00, 0x00, 0x00, 0x00, 0x00, 0x00, 0x01, 0x01, 0x00, 0x00, 0x00,
  0x19, 0x00, 0x00, 0x00, 0x03, 0x00, 0x00, 0x00, 0x18, 0x00, 0x00, 0x00,
  0x0c, 0x00, 0x00, 0x00, 0x06, 0x00, 0x00, 0x00, 0x1a, 0xff, 0xff, 0xff,
  0x14, 0x00, 0x00, 0x00, 0x00, 0x00, 0x00, 0x01, 0x20, 0x00, 0x00, 0x00,
  0x24, 0x00, 0x00, 0x00, 0x01, 0x00, 0x00, 0x00, 0x6c, 0xff, 0xff, 0xff,
  0x00, 0x00, 0x00, 0x01, 0x01, 0x00, 0x00, 0x00, 0x01, 0x00, 0x00, 0x00,
  0x00, 0x00, 0x00, 0x01, 0x01, 0x00, 0x00, 0x00, 0x18, 0x00, 0x00, 0x00,
  0x03, 0x00, 0x00, 0x00, 0x17, 0x00, 0x00, 0x00, 0x0b, 0x00, 0x00, 0x00,
  0x05, 0x00, 0x00, 0x00, 0x5e, 0xff, 0xff, 0xff, 0x24, 0x00, 0x00, 0x00,
  0x00, 0x00, 0x00, 0x05, 0x34, 0x00, 0x00, 0x00, 0x38, 0x00, 0x00, 0x00,
  0x02, 0x00, 0x00, 0x00, 0x00, 0x00, 0x0e, 0x00, 0x18, 0x00, 0x17, 0x00,
  0x10, 0x00, 0x0c, 0x00, 0x08, 0x00, 0x04, 0x00, 0x0e, 0x00, 0x00, 0x00,
  0x02, 0x00, 0x00, 0x00, 0x02, 0x00, 0x00, 0x00, 0x02, 0x00, 0x00, 0x00,
  0x02, 0x00, 0x00, 0x00, 0x00, 0x00, 0x00, 0x01, 0x01, 0x00, 0x00, 0x00,
  0x17, 0x00, 0x00, 0x00, 0x01, 0x00, 0x00, 0x00, 0x16, 0x00, 0x00, 0x00,
  0xae, 0xff, 0xff, 0xff, 0x20, 0x00, 0x00, 0x00, 0x00, 0x00, 0x00, 0x01,
  0x2c, 0x00, 0x00, 0x00, 0x30, 0x00, 0x00, 0x00, 0x01, 0x00, 0x00, 0x00,
  0x0c, 0x00, 0x14, 0x00, 0x13, 0x00, 0x0c, 0x00, 0x08, 0x00, 0x07, 0x00,
  0x0c, 0x00, 0x00, 0x00, 0x00, 0x00, 0x00, 0x01, 0x01, 0x00, 0x00, 0x00,
  0x01, 0x00, 0x00, 0x00, 0x00, 0x00, 0x00, 0x01, 0x01, 0x00, 0x00, 0x00,
  0x16, 0x00, 0x00, 0x00, 0x03, 0x00, 0x00, 0x00, 0x15, 0x00, 0x00, 0x00,
  0x0a, 0x00, 0x00, 0x00, 0x04, 0x00, 0x00, 0x00, 0x00, 0x00, 0x0e, 0x00,
  0x1a, 0x00, 0x14, 0x00, 0x10, 0x00, 0x0c, 0x00, 0x0b, 0x00, 0x04, 0x00,
  0x0e, 0x00, 0x00, 0x00, 0x20, 0x00, 0x00, 0x00, 0x00, 0x00, 0x00, 0x01,
  0x28, 0x00, 0x00, 0x00, 0x2c, 0x00, 0x00, 0x00, 0x01, 0x00, 0x00, 0x00,
  0x00, 0x00, 0x0a, 0x00, 0x10, 0x00, 0x0f, 0x00, 0x08, 0x00, 0x04, 0x00,
  0x0a, 0x00, 0x00, 0x00, 0x01, 0x00, 0x00, 0x00, 0x01, 0x00, 0x00, 0x00,
  0x00, 0x00, 0x00, 0x01, 0x01, 0x00, 0x00, 0x00, 0x15, 0x00, 0x00, 0x00,
  0x03, 0x00, 0x00, 0x00, 0x14, 0x00, 0x00, 0x00, 0x09, 0x00, 0x00, 0x00,
  0x03, 0x00, 0x00, 0x00, 0x00, 0x00, 0x0e, 0x00, 0x16, 0x00, 0x00, 0x00,
  0x10, 0x00, 0x0c, 0x00, 0x0b, 0x00, 0x04, 0x00, 0x0e, 0x00, 0x00, 0x00,
  0x20, 0x00, 0x00, 0x00, 0x00, 0x00, 0x00, 0x02, 0x30, 0x00, 0x00, 0x00,
  0x34, 0x00, 0x00, 0x00, 0x00, 0x00, 0x0e, 0x00, 0x18, 0x00, 0x17, 0x00,
  0x10, 0x00, 0x0c, 0x00, 0x08, 0x00, 0x07, 0x00, 0x0e, 0x00, 0x00, 0x00,
  0x00, 0x00, 0x00, 0x01, 0x01, 0x00, 0x00, 0x00, 0x01, 0x00, 0x00, 0x00,
  0x01, 0x00, 0x00, 0x00, 0x00, 0x00, 0x00, 0x01, 0x01, 0x00, 0x00, 0x00,
  0x14, 0x00, 0x00, 0x00, 0x03, 0x00, 0x00, 0x00, 0x00, 0x00, 0x00, 0x00,
  0x02, 0x00, 0x00, 0x00, 0x01, 0x00, 0x00, 0x00, 0x01, 0x00, 0x00, 0x00,
  0x21, 0x00, 0x00, 0x00, 0x01, 0x00, 0x00, 0x00, 0x00, 0x00, 0x00, 0x00,
  0x22, 0x00, 0x00, 0x00, 0xc4, 0x15, 0x00, 0x00, 0xa0, 0x14, 0x00, 0x00,
  0x90, 0x13, 0x00, 0x00, 0xe0, 0x12, 0x00, 0x00, 0xf4, 0x11, 0x00, 0x00,
  0xe8, 0x10, 0x00, 0x00, 0xfc, 0x0f, 0x00, 0x00, 0x4c, 0x0f, 0x00, 0x00,
  0x9c, 0x0e, 0x00, 0x00, 0x44, 0x0e, 0x00, 0x00, 0xec, 0x0d, 0x00, 0x00,
  0x94, 0x0d, 0x00, 0x00, 0x3c, 0x0d, 0x00, 0x00, 0xe4, 0x0c, 0x00, 0x00,
  0x8c, 0x0c, 0x00, 0x00, 0x3c, 0x0c, 0x00, 0x00, 0xcc, 0x0b, 0x00, 0x00,
  0x74, 0x0b, 0x00, 0x00, 0x28, 0x0b, 0x00, 0x00, 0xdc, 0x0a, 0x00, 0x00,
  0xac, 0x09, 0x00, 0x00, 0x9c, 0x08, 0x00, 0x00, 0x88, 0x07, 0x00, 0x00,
  0x0c, 0x07, 0x00, 0x00, 0xdc, 0x05, 0x00, 0x00, 0xc8, 0x04, 0x00, 0x00,
  0x4c, 0x04, 0x00, 0x00, 0x3c, 0x03, 0x00, 0x00, 0x4c, 0x02, 0x00, 0x00,
  0xd0, 0x01, 0x00, 0x00, 0x70, 0x01, 0x00, 0x00, 0xdc, 0x00, 0x00, 0x00,
  0x60, 0x00, 0x00, 0x00, 0x04, 0x00, 0x00, 0x00, 0xda, 0xea, 0xff, 0xff,
  0x00, 0x00, 0x00, 0x01, 0x14, 0x00, 0x00, 0x00, 0x1c, 0x00, 0x00, 0x00,
  0x1c, 0x00, 0x00, 0x00, 0x22, 0x00, 0x00, 0x00, 0x34, 0x00, 0x00, 0x00,
  0x02, 0x00, 0x00, 0x00, 0xff, 0xff, 0xff, 0xff, 0x03, 0x00, 0x00, 0x00,
  0xbc, 0xea, 0xff, 0xff, 0x19, 0x00, 0x00, 0x00, 0x53, 0x74, 0x61, 0x74,
  0x65, 0x66, 0x75, 0x6c, 0x50, 0x61, 0x72, 0x74, 0x69, 0x74, 0x69, 0x6f,
  0x6e, 0x65, 0x64, 0x43, 0x61, 0x6c, 0x6c, 0x3a, 0x30, 0x00, 0x00, 0x00,
  0x02, 0x00, 0x00, 0x00, 0x01, 0x00, 0x00, 0x00, 0x03, 0x00, 0x00, 0x00,
  0x32, 0xeb, 0xff, 0xff, 0x00, 0x00, 0x00, 0x01, 0x14, 0x00, 0x00, 0x00,
  0x1c, 0x00, 0x00, 0x00, 0x1c, 0x00, 0x00, 0x00, 0x21, 0x00, 0x00, 0x00,
  0x54, 0x00, 0x00, 0x00, 0x02, 0x00, 0x00, 0x00, 0xff, 0xff, 0xff, 0xff,
  0x03, 0x00, 0x00, 0x00, 0x14, 0xeb, 0xff, 0xff, 0x38, 0x00, 0x00, 0x00,
  0x73, 0x65, 0x71, 0x75, 0x65, 0x6e, 0x74, 0x69, 0x61, 0x6c, 0x5f, 0x32,
  0x2f, 0x64, 0x65, 0x6e, 0x73, 0x65, 0x5f, 0x35, 0x2f, 0x4d, 0x61, 0x74,
  0x4d, 0x75, 0x6c, 0x3b, 0x73, 0x65, 0x71, 0x75, 0x65, 0x6e, 0x74, 0x69,
  0x61, 0x6c, 0x5f, 0x32, 0x2f, 0x64, 0x65, 0x6e, 0x73, 0x65, 0x5f, 0x35,
  0x2f, 0x42, 0x69, 0x61, 0x73, 0x41, 0x64, 0x64, 0x00, 0x00, 0x00, 0x00,
  0x02, 0x00, 0x00, 0x00, 0x01, 0x00, 0x00, 0x00, 0x03, 0x00, 0x00, 0x00,
  0xaa, 0xeb, 0xff, 0xff, 0x00, 0x00, 0x00, 0x01, 0x14, 0x00, 0x00, 0x00,
  0x1c, 0x00, 0x00, 0x00, 0x1c, 0x00, 0x00, 0x00, 0x20, 0x00, 0x00, 0x00,
  0x6c, 0x00, 0x00, 0x00, 0x02, 0x00, 0x00, 0x00, 0xff, 0xff, 0xff, 0xff,
  0x05, 0x00, 0x00, 0x00, 0x8c, 0xeb, 0xff, 0xff, 0x52, 0x00, 0x00, 0x00,
  0x73, 0x65, 0x71, 0x75, 0x65, 0x6e, 0x74, 0x69, 0x61, 0x6c, 0x5f, 0x32,
  0x2f, 0x64, 0x65, 0x6e, 0x73, 0x65, 0x5f, 0x34, 0x2f, 0x4d, 0x61, 0x74,
  0x4d, 0x75, 0x6c, 0x3b, 0x73, 0x65, 0x71, 0x75, 0x65, 0x6e, 0x74, 0x69,
  0x61, 0x6c, 0x5f, 0x32, 0x2f, 0x64, 0x65, 0x6e, 0x73, 0x65, 0x5f, 0x34,
  0x2f, 0x52, 0x65, 0x6c, 0x75, 0x3b, 0x73, 0x65, 0x71, 0x75, 0x65, 0x6e,
  0x74, 0x69, 0x61, 0x6c, 0x5f, 0x32, 0x2f, 0x64, 0x65, 0x6e, 0x73, 0x65,
  0x5f, 0x34, 0x2f, 0x42, 0x69, 0x61, 0x73, 0x41, 0x64, 0x64, 0x00, 0x00,
  0x02, 0x00, 0x00, 0x00, 0x01, 0x00, 0x00, 0x00, 0x05, 0x00, 0x00, 0x00,
  0x3a, 0xec, 0xff, 0xff, 0x00, 0x00, 0x00, 0x01, 0x14, 0x00, 0x00, 0x00,
  0x1c, 0x00, 0x00, 0x00, 0x1c, 0x00, 0x00, 0x00, 0x1f, 0x00, 0x00, 0x00,
  0x38, 0x00, 0x00, 0x00, 0x02, 0x00, 0x00, 0x00, 0xff, 0xff, 0xff, 0xff,
  0x20, 0x00, 0x00, 0x00, 0x1c, 0xec, 0xff, 0xff, 0x1e, 0x00, 0x00, 0x00,
  0x73, 0x65, 0x71, 0x75, 0x65, 0x6e, 0x74, 0x69, 0x61, 0x6c, 0x5f, 0x32,
  0x2f, 0x66, 0x6c, 0x61, 0x74, 0x74, 0x65, 0x6e, 0x5f, 0x32, 0x2f, 0x52,
  0x65, 0x73, 0x68, 0x61, 0x70, 0x65, 0x00, 0x00, 0x02, 0x00, 0x00, 0x00,
  0x01, 0x00, 0x00, 0x00, 0x20, 0x00, 0x00, 0x00, 0x96, 0xec, 0xff, 0xff,
  0x00, 0x00, 0x00, 0x01, 0x14, 0x00, 0x00, 0x00, 0x24, 0x00, 0x00, 0x00,
  0x24, 0x00, 0x00, 0x00, 0x1e, 0x00, 0x00, 0x00, 0x4c, 0x00, 0x00, 0x00,
  0x04, 0x00, 0x00, 0x00, 0xff, 0xff, 0xff, 0xff, 0x02, 0x00, 0x00, 0x00,
  0x02, 0x00, 0x00, 0x00, 0x08, 0x00, 0x00, 0x00, 0x80, 0xec, 0xff, 0xff,
  0x28, 0x00, 0x00, 0x00, 0x73, 0x65, 0x71, 0x75, 0x65, 0x6e, 0x74, 0x69,
  0x61, 0x6c, 0x5f, 0x32, 0x2f, 0x61, 0x76, 0x65, 0x72, 0x61, 0x67, 0x65,
  0x5f, 0x70, 0x6f, 0x6f, 0x6c, 0x69, 0x6e, 0x67, 0x32, 0x64, 0x5f, 0x38,
  0x2f, 0x41, 0x76, 0x67, 0x50, 0x6f, 0x6f, 0x6c, 0x00, 0x00, 0x00, 0x00,
  0x04, 0x00, 0x00, 0x00, 0x01, 0x00, 0x00, 0x00, 0x02, 0x00, 0x00, 0x00,
  0x02, 0x00, 0x00, 0x00, 0x08, 0x00, 0x00, 0x00, 0x0e, 0xed, 0xff, 0xff,
  0x00, 0x00, 0x00, 0x01, 0x14, 0x00, 0x00, 0x00, 0x24, 0x00, 0x00, 0x00,
  0x24, 0x00, 0x00, 0x00, 0x1d, 0x00, 0x00, 0x00, 0xc0, 0x00, 0x00, 0x00,
  0x04, 0x00, 0x00, 0x00, 0xff, 0xff, 0xff, 0xff, 0x04, 0x00, 0x00, 0x00,
  0x04, 0x00, 0x00, 0x00, 0x08, 0x00, 0x00, 0x00, 0xf8, 0xec, 0xff, 0xff,
  0x9f, 0x00, 0x00, 0x00, 0x73, 0x65, 0x71, 0x75, 0x65, 0x6e, 0x74, 0x69,
  0x61, 0x6c, 0x5f, 0x32, 0x2f, 0x62, 0x61, 0x74, 0x63, 0x68, 0x5f, 0x6e,
  0x6f, 0x72, 0x6d, 0x61, 0x6c, 0x69, 0x7a, 0x61, 0x74, 0x69, 0x6f, 0x6e,
  0x5f, 0x32, 0x30, 0x2f, 0x46, 0x75, 0x73, 0x65, 0x64, 0x42, 0x61, 0x74,
  0x63, 0x68, 0x4e, 0x6f, 0x72, 0x6d, 0x56, 0x33, 0x3b, 0x73, 0x65, 0x71,
  0x75, 0x65, 0x6e, 0x74, 0x69, 0x61, 0x6c, 0x5f, 0x32, 0x2f, 0x63, 0x6f,
  0x6e, 0x76, 0x32, 0x64, 0x5f, 0x31, 0x37, 0x2f, 0x42, 0x69, 0x61, 0x73,
  0x41, 0x64, 0x64, 0x2f, 0x52, 0x65, 0x61, 0x64, 0x56, 0x61, 0x72, 0x69,
  0x61, 0x62, 0x6c, 0x65, 0x4f, 0x70, 0x3b, 0x73, 0x65, 0x71, 0x75, 0x65,
  0x6e, 0x74, 0x69, 0x61, 0x6c, 0x5f, 0x32, 0x2f, 0x63, 0x6f, 0x6e, 0x76,
  0x32, 0x64, 0x5f, 0x31, 0x37, 0x2f, 0x42, 0x69, 0x61, 0x73, 0x41, 0x64,
  0x64, 0x3b, 0x73, 0x65, 0x71, 0x75, 0x65, 0x6e, 0x74, 0x69, 0x61, 0x6c,
  0x5f, 0x32, 0x2f, 0x63, 0x6f, 0x6e, 0x76, 0x32, 0x64, 0x5f, 0x31, 0x37,
  0x2f, 0x43, 0x6f, 0x6e, 0x76, 0x32, 0x44, 0x00, 0x04, 0x00, 0x00, 0x00,
  0x01, 0x00, 0x00, 0x00, 0x04, 0x00, 0x00, 0x00, 0x04, 0x00, 0x00, 0x00,
  0x08, 0x00, 0x00, 0x00, 0xfa, 0xed, 0xff, 0xff, 0x00, 0x00, 0x00, 0x01,
  0x14, 0x00, 0x00, 0x00, 0x24, 0x00, 0x00, 0x00, 0x24, 0x00, 0x00, 0x00,
  0x1c, 0x00, 0x00, 0x00, 0xe0, 0x00, 0x00, 0x00, 0x04, 0x00, 0x00, 0x00,
  0xff, 0xff, 0xff, 0xff, 0x06, 0x00, 0x00, 0x00, 0x06, 0x00, 0x00, 0x00,
  0x08, 0x00, 0x00, 0x00, 0xe4, 0xed, 0xff, 0xff, 0xbd, 0x00, 0x00, 0x00,
  0x73, 0x65, 0x71, 0x75, 0x65, 0x6e, 0x74, 0x69, 0x61, 0x6c, 0x5f, 0x32,
  0x2f, 0x62, 0x61, 0x74, 0x63, 0x68, 0x5f, 0x6e, 0x6f, 0x72, 0x6d, 0x61,
  0x6c, 0x69, 0x7a, 0x61, 0x74, 0x69, 0x6f, 0x6e, 0x5f, 0x31, 0x39, 0x2f,
  0x46, 0x75, 0x73, 0x65, 0x64, 0x42, 0x61, 0x74, 0x63, 0x68, 0x4e, 0x6f,
  0x72, 0x6d, 0x56, 0x33, 0x3b, 0x73, 0x65, 0x71, 0x75, 0x65, 0x6e, 0x74,
  0x69, 0x61, 0x6c, 0x5f, 0x32, 0x2f, 0x63, 0x6f, 0x6e, 0x76, 0x32, 0x64,
  0x5f, 0x31, 0x36, 0x2f, 0x42, 0x69, 0x61, 0x73, 0x41, 0x64, 0x64, 0x2f,
  0x52, 0x65, 0x61, 0x64, 0x56, 0x61, 0x72, 0x69, 0x61, 0x62, 0x6c, 0x65,
  0x4f, 0x70, 0x3b, 0x73, 0x65, 0x71, 0x75, 0x65, 0x6e, 0x74, 0x69, 0x61,
  0x6c, 0x5f, 0x32, 0x2f, 0x63, 0x6f, 0x6e, 0x76, 0x32, 0x64, 0x5f, 0x31,
  0x36, 0x2f, 0x42, 0x69, 0x61, 0x73, 0x41, 0x64, 0x64, 0x3b, 0x73, 0x65,
  0x71, 0x75, 0x65, 0x6e, 0x74, 0x69, 0x61, 0x6c, 0x5f, 0x32, 0x2f, 0x63,
  0x6f, 0x6e, 0x76, 0x32, 0x64, 0x5f, 0x31, 0x37, 0x2f, 0x43, 0x6f, 0x6e,
  0x76, 0x32, 0x44, 0x3b, 0x73, 0x65, 0x71, 0x75, 0x65, 0x6e, 0x74, 0x69,
  0x61, 0x6c, 0x5f, 0x32, 0x2f, 0x63, 0x6f, 0x6e, 0x76, 0x32, 0x64, 0x5f,
  0x31, 0x36, 0x2f, 0x43, 0x6f, 0x6e, 0x76, 0x32, 0x44, 0x00, 0x00, 0x00,
  0x04, 0x00, 0x00, 0x00, 0x01, 0x00, 0x00, 0x00, 0x06, 0x00, 0x00, 0x00,
  0x06, 0x00, 0x00, 0x00, 0x08, 0x00, 0x00, 0x00, 0x06, 0xef, 0xff, 0xff,
  0x00, 0x00, 0x00, 0x01, 0x14, 0x00, 0x00, 0x00, 0x24, 0x00, 0x00, 0x00,
  0x24, 0x00, 0x00, 0x00, 0x1b, 0x00, 0x00, 0x00, 0x4c, 0x00, 0x00, 0x00,
  0x04, 0x00, 0x00, 0x00, 0xff, 0xff, 0xff, 0xff, 0x08, 0x00, 0x00, 0x00,
  0x08, 0x00, 0x00, 0x00, 0x04, 0x00, 0x00, 0x00, 0xf0, 0xee, 0xff, 0xff,
  0x28, 0x00, 0x00, 0x00, 0x73, 0x65, 0x71, 0x75, 0x65, 0x6e, 0x74, 0x69,
  0x61, 0x6c, 0x5f, 0x32, 0x2f, 0x61, 0x76, 0x65, 0x72, 0x61, 0x67, 0x65,
  0x5f, 0x70, 0x6f, 0x6f, 0x6c, 0x69, 0x6e, 0x67, 0x32, 0x64, 0x5f, 0x37,
  0x2f, 0x41, 0x76, 0x67, 0x50, 0x6f, 0x6f, 0x6c, 0x00, 0x00, 0x00, 0x00,
  0x04, 0x00, 0x00, 0x00, 0x01, 0x00, 0x00, 0x00, 0x08, 0x00, 0x00, 0x00,
  0x08, 0x00, 0x00, 0x00, 0x04, 0x00, 0x00, 0x00, 0x7e, 0xef, 0xff, 0xff,
  0x00, 0x00, 0x00, 0x01, 0x14, 0x00, 0x00, 0x00, 0x24, 0x00, 0x00, 0x00,
  0x24, 0x00, 0x00, 0x00, 0x1a, 0x00, 0x00, 0x00, 0xe4, 0x00, 0x00, 0x00,
  0x04, 0x00, 0x00, 0x00, 0xff, 0xff, 0xff, 0xff, 0x11, 0x00, 0x00, 0x00,
  0x11, 0x00, 0x00, 0x00, 0x04, 0x00, 0x00, 0x00, 0x68, 0xef, 0xff, 0xff,
  0xc0, 0x00, 0x00, 0x00, 0x73, 0x65, 0x71, 0x75, 0x65, 0x6e, 0x74, 0x69,
  0x61, 0x6c, 0x5f, 0x32, 0x2f, 0x61, 0x63, 0x74, 0x69, 0x76, 0x61, 0x74,
  0x69, 0x6f, 0x6e, 0x5f, 0x31, 0x35, 0x2f, 0x52, 0x65, 0x6c, 0x75, 0x3b,
  0x73, 0x65, 0x71, 0x75, 0x65, 0x6e, 0x74, 0x69, 0x61, 0x6c, 0x5f, 0x32,
  0x2f, 0x62, 0x61, 0x74, 0x63, 0x68, 0x5f, 0x6e, 0x6f, 0x72, 0x6d, 0x61,
  0x6c, 0x69, 0x7a, 0x61, 0x74, 0x69, 0x6f, 0x6e, 0x5f, 0x31, 0x38, 0x2f,
  0x46, 0x75, 0x73, 0x65, 0x64, 0x42, 0x61, 0x74, 0x63, 0x68, 0x4e, 0x6f,
  0x72, 0x6d, 0x56, 0x33, 0x3b, 0x73, 0x65, 0x71, 0x75, 0x65, 0x6e, 0x74,
  0x69, 0x61, 0x6c, 0x5f, 0x32, 0x2f, 0x63, 0x6f, 0x6e, 0x76, 0x32, 0x64,
  0x5f, 0x31, 0x35, 0x2f, 0x42, 0x69, 0x61, 0x73, 0x41, 0x64, 0x64, 0x2f,
  0x52, 0x65, 0x61, 0x64, 0x56, 0x61, 0x72, 0x69, 0x61, 0x62, 0x6c, 0x65,
  0x4f, 0x70, 0x3b, 0x73, 0x65, 0x71, 0x75, 0x65, 0x6e, 0x74, 0x69, 0x61,
  0x6c, 0x5f, 0x32, 0x2f, 0x63, 0x6f, 0x6e, 0x76, 0x32, 0x64, 0x5f, 0x31,
  0x35, 0x2f, 0x42, 0x69, 0x61, 0x73, 0x41, 0x64, 0x64, 0x3b, 0x73, 0x65,
  0x71, 0x75, 0x65, 0x6e, 0x74, 0x69, 0x61, 0x6c, 0x5f, 0x32, 0x2f, 0x63,
  0x6f, 0x6e, 0x76, 0x32, 0x64, 0x5f, 0x31, 0x35, 0x2f, 0x43, 0x6f, 0x6e,
  0x76, 0x32, 0x44, 0x31, 0x00, 0x00, 0x00, 0x00, 0x04, 0x00, 0x00, 0x00,
  0x01, 0x00, 0x00, 0x00, 0x11, 0x00, 0x00, 0x00, 0x11, 0x00, 0x00, 0x00,
  0x04, 0x00, 0x00, 0x00, 0x8e, 0xf0, 0xff, 0xff, 0x00, 0x00, 0x00, 0x01,
  0x14, 0x00, 0x00, 0x00, 0x24, 0x00, 0x00, 0x00, 0x24, 0x00, 0x00, 0x00,
  0x19, 0x00, 0x00, 0x00, 0x00, 0x01, 0x00, 0x00, 0x04, 0x00, 0x00, 0x00,
  0xff, 0xff, 0xff, 0xff, 0x13, 0x00, 0x00, 0x00, 0x13, 0x00, 0x00, 0x00,
  0x04, 0x00, 0x00, 0x00, 0x78, 0xf0, 0xff, 0xff, 0xde, 0x00, 0x00, 0x00,
  0x73, 0x65, 0x71, 0x75, 0x65, 0x6e, 0x74, 0x69, 0x61, 0x6c, 0x5f, 0x32,
  0x2f, 0x61, 0x63, 0x74, 0x69, 0x76, 0x61, 0x74, 0x69, 0x6f, 0x6e, 0x5f,
  0x31, 0x34, 0x2f, 0x52, 0x65, 0x6c, 0x75, 0x3b, 0x73, 0x65, 0x71, 0x75,
  0x65, 0x6e, 0x74, 0x69, 0x61, 0x6c, 0x5f, 0x32, 0x2f, 0x62, 0x61, 0x74,
  0x63, 0x68, 0x5f, 0x6e, 0x6f, 0x72, 0x6d, 0x61, 0x6c, 0x69, 0x7a, 0x61,
  0x74, 0x69, 0x6f, 0x6e, 0x5f, 0x31, 0x37, 0x2f, 0x46, 0x75, 0x73, 0x65,
  0x64, 0x42, 0x61, 0x74, 0x63, 0x68, 0x4e, 0x6f, 0x72, 0x6d, 0x56, 0x33,
  0x3b, 0x73, 0x65, 0x71, 0x75, 0x65, 0x6e, 0x74, 0x69, 0x61, 0x6c, 0x5f,
  0x32, 0x2f, 0x63, 0x6f, 0x6e, 0x76, 0x32, 0x64, 0x5f, 0x31, 0x34, 0x2f,
  0x42, 0x69, 0x61, 0x73, 0x41, 0x64, 0x64, 0x2f, 0x52, 0x65, 0x61, 0x64,
  0x56, 0x61, 0x72, 0x69, 0x61, 0x62, 0x6c, 0x65, 0x4f, 0x70, 0x3b, 0x73,
  0x65, 0x71, 0x75, 0x65, 0x6e, 0x74, 0x69, 0x61, 0x6c, 0x5f, 0x32, 0x2f,
  0x63, 0x6f, 0x6e, 0x76, 0x32, 0x64, 0x5f, 0x31, 0x34, 0x2f, 0x42, 0x69,
  0x61, 0x73, 0x41, 0x64, 0x64, 0x3b, 0x73, 0x65, 0x71, 0x75, 0x65, 0x6e,
  0x74, 0x69, 0x61, 0x6c, 0x5f, 0x32, 0x2f, 0x63, 0x6f, 0x6e, 0x76, 0x32,
  0x64, 0x5f, 0x31, 0x35, 0x2f, 0x43, 0x6f, 0x6e, 0x76, 0x32, 0x44, 0x3b,
  0x73, 0x65, 0x71, 0x75, 0x65, 0x6e, 0x74, 0x69, 0x61, 0x6c, 0x5f, 0x32,
  0x2f, 0x63, 0x6f, 0x6e, 0x76, 0x32, 0x64, 0x5f, 0x31, 0x34, 0x2f, 0x43,
  0x6f, 0x6e, 0x76, 0x32, 0x44, 0x31, 0x00, 0x00, 0x04, 0x00, 0x00, 0x00,
  0x01, 0x00, 0x00, 0x00, 0x13, 0x00, 0x00, 0x00, 0x13, 0x00, 0x00, 0x00,
  0x04, 0x00, 0x00, 0x00, 0xba, 0xf1, 0xff, 0xff, 0x00, 0x00, 0x00, 0x01,
  0x14, 0x00, 0x00, 0x00, 0x24, 0x00, 0x00, 0x00, 0x24, 0x00, 0x00, 0x00,
  0x18, 0x00, 0x00, 0x00, 0x4c, 0x00, 0x00, 0x00, 0x04, 0x00, 0x00, 0x00,
  0xff, 0xff, 0xff, 0xff, 0x15, 0x00, 0x00, 0x00, 0x15, 0x00, 0x00, 0x00,
  0x02, 0x00, 0x00, 0x00, 0xa4, 0xf1, 0xff, 0xff, 0x28, 0x00, 0x00, 0x00,
  0x73, 0x65, 0x71, 0x75, 0x65, 0x6e, 0x74, 0x69, 0x61, 0x6c, 0x5f, 0x32,
  0x2f, 0x61, 0x76, 0x65, 0x72, 0x61, 0x67, 0x65, 0x5f, 0x70, 0x6f, 0x6f,
  0x6c, 0x69, 0x6e, 0x67, 0x32, 0x64, 0x5f, 0x36, 0x2f, 0x41, 0x76, 0x67,
  0x50, 0x6f, 0x6f, 0x6c, 0x00, 0x00, 0x00, 0x00, 0x04, 0x00, 0x00, 0x00,
  0x01, 0x00, 0x00, 0x00, 0x15, 0x00, 0x00, 0x00, 0x15, 0x00, 0x00, 0x00,
  0x02, 0x00, 0x00, 0x00, 0x32, 0xf2, 0xff, 0xff, 0x00, 0x00, 0x00, 0x01,
  0x14, 0x00, 0x00, 0x00, 0x24, 0x00, 0x00, 0x00, 0x24, 0x00, 0x00, 0x00,
  0x17, 0x00, 0x00, 0x00, 0xe4, 0x00, 0x00, 0x00, 0x04, 0x00, 0x00, 0x00,
  0xff, 0xff, 0xff, 0xff, 0x2a, 0x00, 0x00, 0x00, 0x2a, 0x00, 0x00, 0x00,
  0x02, 0x00, 0x00, 0x00, 0x1c, 0xf2, 0xff, 0xff, 0xc0, 0x00, 0x00, 0x00,
  0x73, 0x65, 0x71, 0x75, 0x65, 0x6e, 0x74, 0x69, 0x61, 0x6c, 0x5f, 0x32,
  0x2f, 0x61, 0x63, 0x74, 0x69, 0x76, 0x61, 0x74, 0x69, 0x6f, 0x6e, 0x5f,
  0x31, 0x33, 0x2f, 0x52, 0x65, 0x6c, 0x75, 0x3b, 0x73, 0x65, 0x71, 0x75,
  0x65, 0x6e, 0x74, 0x69, 0x61, 0x6c, 0x5f, 0x32, 0x2f, 0x62, 0x61, 0x74,
  0x63, 0x68, 0x5f, 0x6e, 0x6f, 0x72, 0x6d, 0x61, 0x6c, 0x69, 0x7a, 0x61,
  0x74, 0x69, 0x6f, 0x6e, 0x5f, 0x31, 0x36, 0x2f, 0x46, 0x75, 0x73, 0x65,
  0x64, 0x42, 0x61, 0x74, 0x63, 0x68, 0x4e, 0x6f, 0x72, 0x6d, 0x56, 0x33,
  0x3b, 0x73, 0x65, 0x71, 0x75, 0x65, 0x6e, 0x74, 0x69, 0x61, 0x6c, 0x5f,
  0x32, 0x2f, 0x63, 0x6f, 0x6e, 0x76, 0x32, 0x64, 0x5f, 0x31, 0x33, 0x2f,
  0x42, 0x69, 0x61, 0x73, 0x41, 0x64, 0x64, 0x2f, 0x52, 0x65, 0x61, 0x64,
  0x56, 0x61, 0x72, 0x69, 0x61, 0x62, 0x6c, 0x65, 0x4f, 0x70, 0x3b, 0x73,
  0x65, 0x71, 0x75, 0x65, 0x6e, 0x74, 0x69, 0x61, 0x6c, 0x5f, 0x32, 0x2f,
  0x63, 0x6f, 0x6e, 0x76, 0x32, 0x64, 0x5f, 0x31, 0x33, 0x2f, 0x42, 0x69,
  0x61, 0x73, 0x41, 0x64, 0x64, 0x3b, 0x73, 0x65, 0x71, 0x75, 0x65, 0x6e,
  0x74, 0x69, 0x61, 0x6c, 0x5f, 0x32, 0x2f, 0x63, 0x6f, 0x6e, 0x76, 0x32,
  0x64, 0x5f, 0x31, 0x33, 0x2f, 0x43, 0x6f, 0x6e, 0x76, 0x32, 0x44, 0x31,
  0x00, 0x00, 0x00, 0x00, 0x04, 0x00, 0x00, 0x00, 0x01, 0x00, 0x00, 0x00,
  0x2a, 0x00, 0x00, 0x00, 0x2a, 0x00, 0x00, 0x00, 0x02, 0x00, 0x00, 0x00,
  0x42, 0xf3, 0xff, 0xff, 0x00, 0x00, 0x00, 0x01, 0x14, 0x00, 0x00, 0x00,
  0x24, 0x00, 0x00, 0x00, 0x24, 0x00, 0x00, 0x00, 0x16, 0x00, 0x00, 0x00,
  0xe0, 0x00, 0x00, 0x00, 0x04, 0x00, 0x00, 0x00, 0xff, 0xff, 0xff, 0xff,
  0x2c, 0x00, 0x00, 0x00, 0x2c, 0x00, 0x00, 0x00, 0x02, 0x00, 0x00, 0x00,
  0x2c, 0xf3, 0xff, 0xff, 0xbd, 0x00, 0x00, 0x00, 0x73, 0x65, 0x71, 0x75,
  0x65, 0x6e, 0x74, 0x69, 0x61, 0x6c, 0x5f, 0x32, 0x2f, 0x62, 0x61, 0x74,
  0x63, 0x68, 0x5f, 0x6e, 0x6f, 0x72, 0x6d, 0x61, 0x6c, 0x69, 0x7a, 0x61,
  0x74, 0x69, 0x6f, 0x6e, 0x5f, 0x31, 0x35, 0x2f, 0x46, 0x75, 0x73, 0x65,
  0x64, 0x42, 0x61, 0x74, 0x63, 0x68, 0x4e, 0x6f, 0x72, 0x6d, 0x56, 0x33,
  0x3b, 0x73, 0x65, 0x71, 0x75, 0x65, 0x6e, 0x74, 0x69, 0x61, 0x6c, 0x5f,
  0x32, 0x2f, 0x63, 0x6f, 0x6e, 0x76, 0x32, 0x64, 0x5f, 0x31, 0x32, 0x2f,
  0x42, 0x69, 0x61, 0x73, 0x41, 0x64, 0x64, 0x2f, 0x52, 0x65, 0x61, 0x64,
  0x56, 0x61, 0x72, 0x69, 0x61, 0x62, 0x6c, 0x65, 0x4f, 0x70, 0x3b, 0x73,
  0x65, 0x71, 0x75, 0x65, 0x6e, 0x74, 0x69, 0x61, 0x6c, 0x5f, 0x32, 0x2f,
  0x63, 0x6f, 0x6e, 0x76, 0x32, 0x64, 0x5f, 0x31, 0x32, 0x2f, 0x42, 0x69,
  0x61, 0x73, 0x41, 0x64, 0x64, 0x3b, 0x73, 0x65, 0x71, 0x75, 0x65, 0x6e,
  0x74, 0x69, 0x61, 0x6c, 0x5f, 0x32, 0x2f, 0x63, 0x6f, 0x6e, 0x76, 0x32,
  0x64, 0x5f, 0x31, 0x33, 0x2f, 0x43, 0x6f, 0x6e, 0x76, 0x32, 0x44, 0x3b,
  0x73, 0x65, 0x71, 0x75, 0x65, 0x6e, 0x74, 0x69, 0x61, 0x6c, 0x5f, 0x32,
  0x2f, 0x63, 0x6f, 0x6e, 0x76, 0x32, 0x64, 0x5f, 0x31, 0x32, 0x2f, 0x43,
  0x6f, 0x6e, 0x76, 0x32, 0x44, 0x00, 0x00, 0x00, 0x04, 0x00, 0x00, 0x00,
  0x01, 0x00, 0x00, 0x00, 0x2c, 0x00, 0x00, 0x00, 0x2c, 0x00, 0x00, 0x00,
  0x02, 0x00, 0x00, 0x00, 0x4e, 0xf4, 0xff, 0xff, 0x00, 0x00, 0x00, 0x01,
  0x14, 0x00, 0x00, 0x00, 0x24, 0x00, 0x00, 0x00, 0x24, 0x00, 0x00, 0x00,
  0x15, 0x00, 0x00, 0x00, 0x00, 0x01, 0x00, 0x00, 0x04, 0x00, 0x00, 0x00,
  0xff, 0xff, 0xff, 0xff, 0x2e, 0x00, 0x00, 0x00, 0x2e, 0x00, 0x00, 0x00,
  0x01, 0x00, 0x00, 0x00, 0x38, 0xf4, 0xff, 0xff, 0xde, 0x00, 0x00, 0x00,
  0x73, 0x65, 0x71, 0x75, 0x65, 0x6e, 0x74, 0x69, 0x61, 0x6c, 0x5f, 0x32,
  0x2f, 0x61, 0x63, 0x74, 0x69, 0x76, 0x61, 0x74, 0x69, 0x6f, 0x6e, 0x5f,
  0x31, 0x32, 0x2f, 0x52, 0x65, 0x6c, 0x75, 0x3b, 0x73, 0x65, 0x71, 0x75,
  0x65, 0x6e, 0x74, 0x69, 0x61, 0x6c, 0x5f, 0x32, 0x2f, 0x62, 0x61, 0x74,
  0x63, 0x68, 0x5f, 0x6e, 0x6f, 0x72, 0x6d, 0x61, 0x6c, 0x69, 0x7a, 0x61,
  0x74, 0x69, 0x6f, 0x6e, 0x5f, 0x31, 0x34, 0x2f, 0x46, 0x75, 0x73, 0x65,
  0x64, 0x42, 0x61, 0x74, 0x63, 0x68, 0x4e, 0x6f, 0x72, 0x6d, 0x56, 0x33,
  0x3b, 0x73, 0x65, 0x71, 0x75, 0x65, 0x6e, 0x74, 0x69, 0x61, 0x6c, 0x5f,
  0x32, 0x2f, 0x64, 0x65, 0x70, 0x74, 0x68, 0x77, 0x69, 0x73, 0x65, 0x5f,
  0x63, 0x6f, 0x6e, 0x76, 0x32, 0x64, 0x5f, 0x32, 0x2f, 0x64, 0x65, 0x70,
  0x74, 0x68, 0x77, 0x69, 0x73, 0x65, 0x3b, 0x73, 0x65, 0x71, 0x75, 0x65,
  0x6e, 0x74, 0x69, 0x61, 0x6c, 0x5f, 0x32, 0x2f, 0x64, 0x65, 0x70, 0x74,
  0x68, 0x77, 0x69, 0x73, 0x65, 0x5f, 0x63, 0x6f, 0x6e, 0x76, 0x32, 0x64,
  0x5f, 0x32, 0x2f, 0x42, 0x69, 0x61, 0x73, 0x41, 0x64, 0x64, 0x2f, 0x52,
  0x65, 0x61, 0x64, 0x56, 0x61, 0x72, 0x69, 0x61, 0x62, 0x6c, 0x65, 0x4f,
  0x70, 0x3b, 0x73, 0x65, 0x71, 0x75, 0x65, 0x6e, 0x74, 0x69, 0x61, 0x6c,
  0x5f, 0x32, 0x2f, 0x64, 0x65, 0x70, 0x74, 0x68, 0x77, 0x69, 0x73, 0x65,
  0x5f, 0x63, 0x6f, 0x6e, 0x76, 0x32, 0x64, 0x5f, 0x32, 0x2f, 0x42, 0x69,
  0x61, 0x73, 0x41, 0x64, 0x64, 0x31, 0x00, 0x00, 0x04, 0x00, 0x00, 0x00,
  0x01, 0x00, 0x00, 0x00, 0x2e, 0x00, 0x00, 0x00, 0x2e, 0x00, 0x00, 0x00,
  0x01, 0x00, 0x00, 0x00, 0x9a, 0xf6, 0xff, 0xff, 0x00, 0x00, 0x00, 0x01,
  0x10, 0x00, 0x00, 0x00, 0x10, 0x00, 0x00, 0x00, 0x14, 0x00, 0x00, 0x00,
  0x28, 0x00, 0x00, 0x00, 0x4c, 0xf5, 0xff, 0xff, 0x1b, 0x00, 0x00, 0x00,
  0x73, 0x65, 0x71, 0x75, 0x65, 0x6e, 0x74, 0x69, 0x61, 0x6c, 0x5f, 0x32,
  0x2f, 0x64, 0x65, 0x6e, 0x73, 0x65, 0x5f, 0x35, 0x2f, 0x4d, 0x61, 0x74,
  0x4d, 0x75, 0x6c, 0x00, 0x02, 0x00, 0x00, 0x00, 0x03, 0x00, 0x00, 0x00,
  0x05, 0x00, 0x00, 0x00, 0xe2, 0xf6, 0xff, 0xff, 0x00, 0x00, 0x00, 0x01,
  0x10, 0x00, 0x00, 0x00, 0x10, 0x00, 0x00, 0x00, 0x13, 0x00, 0x00, 0x00,
  0x28, 0x00, 0x00, 0x00, 0x94, 0xf5, 0xff, 0xff, 0x1b, 0x00, 0x00, 0x00,
  0x73, 0x65, 0x71, 0x75, 0x65, 0x6e, 0x74, 0x69, 0x61, 0x6c, 0x5f, 0x32,
  0x2f, 0x64, 0x65, 0x6e, 0x73, 0x65, 0x5f, 0x34, 0x2f, 0x4d, 0x61, 0x74,
  0x4d, 0x75, 0x6c, 0x00, 0x02, 0x00, 0x00, 0x00, 0x05, 0x00, 0x00, 0x00,
  0x20, 0x00, 0x00, 0x00, 0x2a, 0xf7, 0xff, 0xff, 0x00, 0x00, 0x00, 0x01,
  0x10, 0x00, 0x00, 0x00, 0x10, 0x00, 0x00, 0x00, 0x12, 0x00, 0x00, 0x00,
  0x38, 0x00, 0x00, 0x00, 0xdc, 0xf5, 0xff, 0xff, 0x2b, 0x00, 0x00, 0x00,
  0x73, 0x65, 0x71, 0x75, 0x65, 0x6e, 0x74, 0x69, 0x61, 0x6c, 0x5f, 0x32,
  0x2f, 0x64, 0x65, 0x6e, 0x73, 0x65, 0x5f, 0x35, 0x2f, 0x42, 0x69, 0x61,
  0x73, 0x41, 0x64, 0x64, 0x2f, 0x52, 0x65, 0x61, 0x64, 0x56, 0x61, 0x72,
  0x69, 0x61, 0x62, 0x6c, 0x65, 0x4f, 0x70, 0x00, 0x01, 0x00, 0x00, 0x00,
  0x03, 0x00, 0x00, 0x00, 0x7e, 0xf7, 0xff, 0xff, 0x00, 0x00, 0x00, 0x01,
  0x10, 0x00, 0x00, 0x00, 0x10, 0x00, 0x00, 0x00, 0x11, 0x00, 0x00, 0x00,
  0x38, 0x00, 0x00, 0x00, 0x30, 0xf6, 0xff, 0xff, 0x2b, 0x00, 0x00, 0x00,
  0x73, 0x65, 0x71, 0x75, 0x65, 0x6e, 0x74, 0x69, 0x61, 0x6c, 0x5f, 0x32,
  0x2f, 0x64, 0x65, 0x6e, 0x73, 0x65, 0x5f, 0x34, 0x2f, 0x42, 0x69, 0x61,
  0x73, 0x41, 0x64, 0x64, 0x2f, 0x52, 0x65, 0x61, 0x64, 0x56, 0x61, 0x72,
  0x69, 0x61, 0x62, 0x6c, 0x65, 0x4f, 0x70, 0x00, 0x01, 0x00, 0x00, 0x00,
  0x05, 0x00, 0x00, 0x00, 0x00, 0x00, 0x16, 0x00, 0x1c, 0x00, 0x18, 0x00,
  0x17, 0x00, 0x10, 0x00, 0x0c, 0x00, 0x08, 0x00, 0x00, 0x00, 0x00, 0x00,
  0x00, 0x00, 0x07, 0x00, 0x16, 0x00, 0x00, 0x00, 0x00, 0x00, 0x00, 0x01,
  0x14, 0x00, 0x00, 0x00, 0x14, 0x00, 0x00, 0x00, 0x10, 0x00, 0x00, 0x00,
  0x00, 0x00, 0x00, 0x02, 0x2c, 0x00, 0x00, 0x00, 0xa0, 0xf6, 0xff, 0xff,
  0x1c, 0x00, 0x00, 0x00, 0x73, 0x65, 0x71, 0x75, 0x65, 0x6e, 0x74, 0x69,
  0x61, 0x6c, 0x5f, 0x32, 0x2f, 0x66, 0x6c, 0x61, 0x74, 0x74, 0x65, 0x6e,
  0x5f, 0x32, 0x2f, 0x43, 0x6f, 0x6e, 0x73, 0x74, 0x00, 0x00, 0x00, 0x00,
  0x01, 0x00, 0x00, 0x00, 0x02, 0x00, 0x00, 0x00, 0x36, 0xf8, 0xff, 0xff,
  0x00, 0x00, 0x00, 0x01, 0x10, 0x00, 0x00, 0x00, 0x10, 0x00, 0x00, 0x00,
  0x0f, 0x00, 0x00, 0x00, 0x2c, 0x00, 0x00, 0x00, 0xe8, 0xf6, 0xff, 0xff,
  0x1d, 0x00, 0x00, 0x00, 0x73, 0x65, 0x71, 0x75, 0x65, 0x6e, 0x74, 0x69,
  0x61, 0x6c, 0x5f, 0x32, 0x2f, 0x63, 0x6f, 0x6e, 0x76, 0x32, 0x64, 0x5f,
  0x31, 0x37, 0x2f, 0x43, 0x6f, 0x6e, 0x76, 0x32, 0x44, 0x00, 0x00, 0x00,
  0x04, 0x00, 0x00, 0x00, 0x08, 0x00, 0x00, 0x00, 0x03, 0x00, 0x00, 0x00,
  0x03, 0x00, 0x00, 0x00, 0x08, 0x00, 0x00, 0x00, 0x8a, 0xf8, 0xff, 0xff,
  0x00, 0x00, 0x00, 0x01, 0x10, 0x00, 0x00, 0x00, 0x10, 0x00, 0x00, 0x00,
  0x0e, 0x00, 0x00, 0x00, 0x2c, 0x00, 0x00, 0x00, 0x3c, 0xf7, 0xff, 0xff,
  0x1d, 0x00, 0x00, 0x00, 0x73, 0x65, 0x71, 0x75, 0x65, 0x6e, 0x74, 0x69,
  0x61, 0x6c, 0x5f, 0x32, 0x2f, 0x63, 0x6f, 0x6e, 0x76, 0x32, 0x64, 0x5f,
  0x31, 0x36, 0x2f, 0x43, 0x6f, 0x6e, 0x76, 0x32, 0x44, 0x00, 0x00, 0x00,
  0x04, 0x00, 0x00, 0x00, 0x08, 0x00, 0x00, 0x00, 0x03, 0x00, 0x00, 0x00,
  0x03, 0x00, 0x00, 0x00, 0x04, 0x00, 0x00, 0x00, 0xde, 0xf8, 0xff, 0xff,
  0x00, 0x00, 0x00, 0x01, 0x10, 0x00, 0x00, 0x00, 0x10, 0x00, 0x00, 0x00,
  0x0d, 0x00, 0x00, 0x00, 0x2c, 0x00, 0x00, 0x00, 0x90, 0xf7, 0xff, 0xff,
  0x1d, 0x00, 0x00, 0x00, 0x73, 0x65, 0x71, 0x75, 0x65, 0x6e, 0x74, 0x69,
  0x61, 0x6c, 0x5f, 0x32, 0x2f, 0x63, 0x6f, 0x6e, 0x76, 0x32, 0x64, 0x5f,
  0x31, 0x35, 0x2f, 0x43, 0x6f, 0x6e, 0x76, 0x32, 0x44, 0x00, 0x00, 0x00,
  0x04, 0x00, 0x00, 0x00, 0x04, 0x00, 0x00, 0x00, 0x03, 0x00, 0x00, 0x00,
  0x03, 0x00, 0x00, 0x00, 0x04, 0x00, 0x00, 0x00, 0x32, 0xf9, 0xff, 0xff,
  0x00, 0x00, 0x00, 0x01, 0x10, 0x00, 0x00, 0x00, 0x10, 0x00, 0x00, 0x00,
  0x0c, 0x00, 0x00, 0x00, 0x2c, 0x00, 0x00, 0x00, 0xe4, 0xf7, 0xff, 0xff,
  0x1d, 0x00, 0x00, 0x00, 0x73, 0x65, 0x71, 0x75, 0x65, 0x6e, 0x74, 0x69,
  0x61, 0x6c, 0x5f, 0x32, 0x2f, 0x63, 0x6f, 0x6e, 0x76, 0x32, 0x64, 0x5f,
  0x31, 0x34, 0x2f, 0x43, 0x6f, 0x6e, 0x76, 0x32, 0x44, 0x00, 0x00, 0x00,
  0x04, 0x00, 0x00, 0x00, 0x04, 0x00, 0x00, 0x00, 0x03, 0x00, 0x00, 0x00,
  0x03, 0x00, 0x00, 0x00, 0x02, 0x00, 0x00, 0x00, 0x86, 0xf9, 0xff, 0xff,
  0x00, 0x00, 0x00, 0x01, 0x10, 0x00, 0x00, 0x00, 0x10, 0x00, 0x00, 0x00,
  0x0b, 0x00, 0x00, 0x00, 0x2c, 0x00, 0x00, 0x00, 0x38, 0xf8, 0xff, 0xff,
  0x1d, 0x00, 0x00, 0x00, 0x73, 0x65, 0x71, 0x75, 0x65, 0x6e, 0x74, 0x69,
  0x61, 0x6c, 0x5f, 0x32, 0x2f, 0x63, 0x6f, 0x6e, 0x76, 0x32, 0x64, 0x5f,
  0x31, 0x33, 0x2f, 0x43, 0x6f, 0x6e, 0x76, 0x32, 0x44, 0x00, 0x00, 0x00,
  0x04, 0x00, 0x00, 0x00, 0x02, 0x00, 0x00, 0x00, 0x03, 0x00, 0x00, 0x00,
  0x03, 0x00, 0x00, 0x00, 0x02, 0x00, 0x00, 0x00, 0xda, 0xf9, 0xff, 0xff,
  0x00, 0x00, 0x00, 0x01, 0x10, 0x00, 0x00, 0x00, 0x10, 0x00, 0x00, 0x00,
  0x0a, 0x00, 0x00, 0x00, 0x2c, 0x00, 0x00, 0x00, 0x8c, 0xf8, 0xff, 0xff,
  0x1d, 0x00, 0x00, 0x00, 0x73, 0x65, 0x71, 0x75, 0x65, 0x6e, 0x74, 0x69,
  0x61, 0x6c, 0x5f, 0x32, 0x2f, 0x63, 0x6f, 0x6e, 0x76, 0x32, 0x64, 0x5f,
  0x31, 0x32, 0x2f, 0x43, 0x6f, 0x6e, 0x76, 0x32, 0x44, 0x00, 0x00, 0x00,
  0x04, 0x00, 0x00, 0x00, 0x02, 0x00, 0x00, 0x00, 0x03, 0x00, 0x00, 0x00,
  0x03, 0x00, 0x00, 0x00, 0x01, 0x00, 0x00, 0x00, 0x2e, 0xfa, 0xff, 0xff,
  0x00, 0x00, 0x00, 0x01, 0x10, 0x00, 0x00, 0x00, 0x10, 0x00, 0x00, 0x00,
  0x09, 0x00, 0x00, 0x00, 0x90, 0x00, 0x00, 0x00, 0xe0, 0xf8, 0xff, 0xff,
  0x81, 0x00, 0x00, 0x00, 0x73, 0x65, 0x71, 0x75, 0x65, 0x6e, 0x74, 0x69,
  0x61, 0x6c, 0x5f, 0x32, 0x2f, 0x62, 0x61, 0x74, 0x63, 0x68, 0x5f, 0x6e,
  0x6f, 0x72, 0x6d, 0x61, 0x6c, 0x69, 0x7a, 0x61, 0x74, 0x69, 0x6f, 0x6e,
  0x5f, 0x32, 0x30, 0x2f, 0x46, 0x75, 0x73, 0x65, 0x64, 0x42, 0x61, 0x74,
  0x63, 0x68, 0x4e, 0x6f, 0x72, 0x6d, 0x56, 0x33, 0x3b, 0x73, 0x65, 0x71,
  0x75, 0x65, 0x6e, 0x74, 0x69, 0x61, 0x6c, 0x5f, 0x32, 0x2f, 0x63, 0x6f,
  0x6e, 0x76, 0x32, 0x64, 0x5f, 0x31, 0x37, 0x2f, 0x42, 0x69, 0x61, 0x73,
  0x41, 0x64, 0x64, 0x2f, 0x52, 0x65, 0x61, 0x64, 0x56, 0x61, 0x72, 0x69,
  0x61, 0x62, 0x6c, 0x65, 0x4f, 0x70, 0x3b, 0x73, 0x65, 0x71, 0x75, 0x65,
  0x6e, 0x74, 0x69, 0x61, 0x6c, 0x5f, 0x32, 0x2f, 0x63, 0x6f, 0x6e, 0x76,
  0x32, 0x64, 0x5f, 0x31, 0x37, 0x2f, 0x42, 0x69, 0x61, 0x73, 0x41, 0x64,
  0x64, 0x00, 0x00, 0x00, 0x01, 0x00, 0x00, 0x00, 0x08, 0x00, 0x00, 0x00,
  0xda, 0xfa, 0xff, 0xff, 0x00, 0x00, 0x00, 0x01, 0x10, 0x00, 0x00, 0x00,
  0x10, 0x00, 0x00, 0x00, 0x08, 0x00, 0x00, 0x00, 0x90, 0x00, 0x00, 0x00,
  0x8c, 0xf9, 0xff, 0xff, 0x81, 0x00, 0x00, 0x00, 0x73, 0x65, 0x71, 0x75,
  0x65, 0x6e, 0x74, 0x69, 0x61, 0x6c, 0x5f, 0x32, 0x2f, 0x62, 0x61, 0x74,
  0x63, 0x68, 0x5f, 0x6e, 0x6f, 0x72, 0x6d, 0x61, 0x6c, 0x69, 0x7a, 0x61,
  0x74, 0x69, 0x6f, 0x6e, 0x5f, 0x31, 0x39, 0x2f, 0x46, 0x75, 0x73, 0x65,
  0x64, 0x42, 0x61, 0x74, 0x63, 0x68, 0x4e, 0x6f, 0x72, 0x6d, 0x56, 0x33,
  0x3b, 0x73, 0x65, 0x71, 0x75, 0x65, 0x6e, 0x74, 0x69, 0x61, 0x6c, 0x5f,
  0x32, 0x2f, 0x63, 0x6f, 0x6e, 0x76, 0x32, 0x64, 0x5f, 0x31, 0x36, 0x2f,
  0x42, 0x69, 0x61, 0x73, 0x41, 0x64, 0x64, 0x2f, 0x52, 0x65, 0x61, 0x64,
  0x56, 0x61, 0x72, 0x69, 0x61, 0x62, 0x6c, 0x65, 0x4f, 0x70, 0x3b, 0x73,
  0x65, 0x71, 0x75, 0x65, 0x6e, 0x74, 0x69, 0x61, 0x6c, 0x5f, 0x32, 0x2f,
  0x63, 0x6f, 0x6e, 0x76, 0x32, 0x64, 0x5f, 0x31, 0x36, 0x2f, 0x42, 0x69,
  0x61, 0x73, 0x41, 0x64, 0x64, 0x00, 0x00, 0x00, 0x01, 0x00, 0x00, 0x00,
  0x08, 0x00, 0x00, 0x00, 0x86, 0xfb, 0xff, 0xff, 0x00, 0x00, 0x00, 0x01,
  0x10, 0x00, 0x00, 0x00, 0x10, 0x00, 0x00, 0x00, 0x07, 0x00, 0x00, 0x00,
  0xcc, 0x00, 0x00, 0x00, 0x38, 0xfa, 0xff, 0xff, 0xbf, 0x00, 0x00, 0x00,
  0x73, 0x65, 0x71, 0x75, 0x65, 0x6e, 0x74, 0x69, 0x61, 0x6c, 0x5f, 0x32,
  0x2f, 0x61, 0x63, 0x74, 0x69, 0x76, 0x61, 0x74, 0x69, 0x6f, 0x6e, 0x5f,
  0x31, 0x35, 0x2f, 0x52, 0x65, 0x6c, 0x75, 0x3b, 0x73, 0x65, 0x71, 0x75,
  0x65, 0x6e, 0x74, 0x69, 0x61, 0x6c, 0x5f, 0x32, 0x2f, 0x62, 0x61, 0x74,
  0x63, 0x68, 0x5f, 0x6e, 0x6f, 0x72, 0x6d, 0x61, 0x6c, 0x69, 0x7a, 0x61,
  0x74, 0x69, 0x6f, 0x6e, 0x5f, 0x31, 0x38, 0x2f, 0x46, 0x75, 0x73, 0x65,
  0x64, 0x42, 0x61, 0x74, 0x63, 0x68, 0x4e, 0x6f, 0x72, 0x6d, 0x56, 0x33,
  0x3b, 0x73, 0x65, 0x71, 0x75, 0x65, 0x6e, 0x74, 0x69, 0x61, 0x6c, 0x5f,
  0x32, 0x2f, 0x63, 0x6f, 0x6e, 0x76, 0x32, 0x64, 0x5f, 0x31, 0x35, 0x2f,
  0x42, 0x69, 0x61, 0x73, 0x41, 0x64, 0x64, 0x2f, 0x52, 0x65, 0x61, 0x64,
  0x56, 0x61, 0x72, 0x69, 0x61, 0x62, 0x6c, 0x65, 0x4f, 0x70, 0x3b, 0x73,
  0x65, 0x71, 0x75, 0x65, 0x6e, 0x74, 0x69, 0x61, 0x6c, 0x5f, 0x32, 0x2f,
  0x63, 0x6f, 0x6e, 0x76, 0x32, 0x64, 0x5f, 0x31, 0x35, 0x2f, 0x42, 0x69,
  0x61, 0x73, 0x41, 0x64, 0x64, 0x3b, 0x73, 0x65, 0x71, 0x75, 0x65, 0x6e,
  0x74, 0x69, 0x61, 0x6c, 0x5f, 0x32, 0x2f, 0x63, 0x6f, 0x6e, 0x76, 0x32,
  0x64, 0x5f, 0x31, 0x35, 0x2f, 0x43, 0x6f, 0x6e, 0x76, 0x32, 0x44, 0x00,
  0x01, 0x00, 0x00, 0x00, 0x04, 0x00, 0x00, 0x00, 0x6e, 0xfc, 0xff, 0xff,
  0x00, 0x00, 0x00, 0x01, 0x10, 0x00, 0x00, 0x00, 0x10, 0x00, 0x00, 0x00,
  0x06, 0x00, 0x00, 0x00, 0xec, 0x00, 0x00, 0x00, 0x20, 0xfb, 0xff, 0xff,
  0xdd, 0x00, 0x00, 0x00, 0x73, 0x65, 0x71, 0x75, 0x65, 0x6e, 0x74, 0x69,
  0x61, 0x6c, 0x5f, 0x32, 0x2f, 0x61, 0x63, 0x74, 0x69, 0x76, 0x61, 0x74,
  0x69, 0x6f, 0x6e, 0x5f, 0x31, 0x34, 0x2f, 0x52, 0x65, 0x6c, 0x75, 0x3b,
  0x73, 0x65, 0x71, 0x75, 0x65, 0x6e, 0x74, 0x69, 0x61, 0x6c, 0x5f, 0x32,
  0x2f, 0x62, 0x61, 0x74, 0x63, 0x68, 0x5f, 0x6e, 0x6f, 0x72, 0x6d, 0x61,
  0x6c, 0x69, 0x7a, 0x61, 0x74, 0x69, 0x6f, 0x6e, 0x5f, 0x31, 0x37, 0x2f,
  0x46, 0x75, 0x73, 0x65, 0x64, 0x42, 0x61, 0x74, 0x63, 0x68, 0x4e, 0x6f,
  0x72, 0x6d, 0x56, 0x33, 0x3b, 0x73, 0x65, 0x71, 0x75, 0x65, 0x6e, 0x74,
  0x69, 0x61, 0x6c, 0x5f, 0x32, 0x2f, 0x63, 0x6f, 0x6e, 0x76, 0x32, 0x64,
  0x5f, 0x31, 0x34, 0x2f, 0x42, 0x69, 0x61, 0x73, 0x41, 0x64, 0x64, 0x2f,
  0x52, 0x65, 0x61, 0x64, 0x56, 0x61, 0x72, 0x69, 0x61, 0x62, 0x6c, 0x65,
  0x4f, 0x70, 0x3b, 0x73, 0x65, 0x71, 0x75, 0x65, 0x6e, 0x74, 0x69, 0x61,
  0x6c, 0x5f, 0x32, 0x2f, 0x63, 0x6f, 0x6e, 0x76, 0x32, 0x64, 0x5f, 0x31,
  0x34, 0x2f, 0x42, 0x69, 0x61, 0x73, 0x41, 0x64, 0x64, 0x3b, 0x73, 0x65,
  0x71, 0x75, 0x65, 0x6e, 0x74, 0x69, 0x61, 0x6c, 0x5f, 0x32, 0x2f, 0x63,
  0x6f, 0x6e, 0x76, 0x32, 0x64, 0x5f, 0x31, 0x35, 0x2f, 0x43, 0x6f, 0x6e,
  0x76, 0x32, 0x44, 0x3b, 0x73, 0x65, 0x71, 0x75, 0x65, 0x6e, 0x74, 0x69,
  0x61, 0x6c, 0x5f, 0x32, 0x2f, 0x63, 0x6f, 0x6e, 0x76, 0x32, 0x64, 0x5f,
  0x31, 0x34, 0x2f, 0x43, 0x6f, 0x6e, 0x76, 0x32, 0x44, 0x00, 0x00, 0x00,
  0x01, 0x00, 0x00, 0x00, 0x04, 0x00, 0x00, 0x00, 0x76, 0xfd, 0xff, 0xff,
  0x00, 0x00, 0x00, 0x01, 0x10, 0x00, 0x00, 0x00, 0x10, 0x00, 0x00, 0x00,
  0x05, 0x00, 0x00, 0x00, 0xcc, 0x00, 0x00, 0x00, 0x28, 0xfc, 0xff, 0xff,
  0xbf, 0x00, 0x00, 0x00, 0x73, 0x65, 0x71, 0x75, 0x65, 0x6e, 0x74, 0x69,
  0x61, 0x6c, 0x5f, 0x32, 0x2f, 0x61, 0x63, 0x74, 0x69, 0x76, 0x61, 0x74,
  0x69, 0x6f, 0x6e, 0x5f, 0x31, 0x33, 0x2f, 0x52, 0x65, 0x6c, 0x75, 0x3b,
  0x73, 0x65, 0x71, 0x75, 0x65, 0x6e, 0x74, 0x69, 0x61, 0x6c, 0x5f, 0x32,
  0x2f, 0x62, 0x61, 0x74, 0x63, 0x68, 0x5f, 0x6e, 0x6f, 0x72, 0x6d, 0x61,
  0x6c, 0x69, 0x7a, 0x61, 0x74, 0x69, 0x6f, 0x6e, 0x5f, 0x31, 0x36, 0x2f,
  0x46, 0x75, 0x73, 0x65, 0x64, 0x42, 0x61, 0x74, 0x63, 0x68, 0x4e, 0x6f,
  0x72, 0x6d, 0x56, 0x33, 0x3b, 0x73, 0x65, 0x71, 0x75, 0x65, 0x6e, 0x74,
  0x69, 0x61, 0x6c, 0x5f, 0x32, 0x2f, 0x63, 0x6f, 0x6e, 0x76, 0x32, 0x64,
  0x5f, 0x31, 0x33, 0x2f, 0x42, 0x69, 0x61, 0x73, 0x41, 0x64, 0x64, 0x2f,
  0x52, 0x65, 0x61, 0x64, 0x56, 0x61, 0x72, 0x69, 0x61, 0x62, 0x6c, 0x65,
  0x4f, 0x70, 0x3b, 0x73, 0x65, 0x71, 0x75, 0x65, 0x6e, 0x74, 0x69, 0x61,
  0x6c, 0x5f, 0x32, 0x2f, 0x63, 0x6f, 0x6e, 0x76, 0x32, 0x64, 0x5f, 0x31,
  0x33, 0x2f, 0x42, 0x69, 0x61, 0x73, 0x41, 0x64, 0x64, 0x3b, 0x73, 0x65,
  0x71, 0x75, 0x65, 0x6e, 0x74, 0x69, 0x61, 0x6c, 0x5f, 0x32, 0x2f, 0x63,
  0x6f, 0x6e, 0x76, 0x32, 0x64, 0x5f, 0x31, 0x33, 0x2f, 0x43, 0x6f, 0x6e,
  0x76, 0x32, 0x44, 0x00, 0x01, 0x00, 0x00, 0x00, 0x02, 0x00, 0x00, 0x00,
  0x5e, 0xfe, 0xff, 0xff, 0x00, 0x00, 0x00, 0x01, 0x10, 0x00, 0x00, 0x00,
  0x10, 0x00, 0x00, 0x00, 0x04, 0x00, 0x00, 0x00, 0x90, 0x00, 0x00, 0x00,
  0x10, 0xfd, 0xff, 0xff, 0x81, 0x00, 0x00, 0x00, 0x73, 0x65, 0x71, 0x75,
  0x65, 0x6e, 0x74, 0x69, 0x61, 0x6c, 0x5f, 0x32, 0x2f, 0x62, 0x61, 0x74,
  0x63, 0x68, 0x5f, 0x6e, 0x6f, 0x72, 0x6d, 0x61, 0x6c, 0x69, 0x7a, 0x61,
  0x74, 0x69, 0x6f, 0x6e, 0x5f, 0x31, 0x35, 0x2f, 0x46, 0x75, 0x73, 0x65,
  0x64, 0x42, 0x61, 0x74, 0x63, 0x68, 0x4e, 0x6f, 0x72, 0x6d, 0x56, 0x33,
  0x3b, 0x73, 0x65, 0x71, 0x75, 0x65, 0x6e, 0x74, 0x69, 0x61, 0x6c, 0x5f,
  0x32, 0x2f, 0x63, 0x6f, 0x6e, 0x76, 0x32, 0x64, 0x5f, 0x31, 0x32, 0x2f,
  0x42, 0x69, 0x61, 0x73, 0x41, 0x64, 0x64, 0x2f, 0x52, 0x65, 0x61, 0x64,
  0x56, 0x61, 0x72, 0x69, 0x61, 0x62, 0x6c, 0x65, 0x4f, 0x70, 0x3b, 0x73,
  0x65, 0x71, 0x75, 0x65, 0x6e, 0x74, 0x69, 0x61, 0x6c, 0x5f, 0x32, 0x2f,
  0x63, 0x6f, 0x6e, 0x76, 0x32, 0x64, 0x5f, 0x31, 0x32, 0x2f, 0x42, 0x69,
  0x61, 0x73, 0x41, 0x64, 0x64, 0x00, 0x00, 0x00, 0x01, 0x00, 0x00, 0x00,
  0x02, 0x00, 0x00, 0x00, 0x0a, 0xff, 0xff, 0xff, 0x00, 0x00, 0x00, 0x01,
  0x10, 0x00, 0x00, 0x00, 0x10, 0x00, 0x00, 0x00, 0x03, 0x00, 0x00, 0x00,
  0xcc, 0x00, 0x00, 0x00, 0xbc, 0xfd, 0xff, 0xff, 0xbd, 0x00, 0x00, 0x00,
  0x73, 0x65, 0x71, 0x75, 0x65, 0x6e, 0x74, 0x69, 0x61, 0x6c, 0x5f, 0x32,
  0x2f, 0x62, 0x61, 0x74, 0x63, 0x68, 0x5f, 0x6e, 0x6f, 0x72, 0x6d, 0x61,
  0x6c, 0x69, 0x7a, 0x61, 0x74, 0x69, 0x6f, 0x6e, 0x5f, 0x31, 0x34, 0x2f,
  0x46, 0x75, 0x73, 0x65, 0x64, 0x42, 0x61, 0x74, 0x63, 0x68, 0x4e, 0x6f,
  0x72, 0x6d, 0x56, 0x33, 0x3b, 0x73, 0x65, 0x71, 0x75, 0x65, 0x6e, 0x74,
  0x69, 0x61, 0x6c, 0x5f, 0x32, 0x2f, 0x64, 0x65, 0x70, 0x74, 0x68, 0x77,
  0x69, 0x73, 0x65, 0x5f, 0x63, 0x6f, 0x6e, 0x76, 0x32, 0x64, 0x5f, 0x32,
  0x2f, 0x64, 0x65, 0x70, 0x74, 0x68, 0x77, 0x69, 0x73, 0x65, 0x3b, 0x73,
  0x65, 0x71, 0x75, 0x65, 0x6e, 0x74, 0x69, 0x61, 0x6c, 0x5f, 0x32, 0x2f,
  0x64, 0x65, 0x70, 0x74, 0x68, 0x77, 0x69, 0x73, 0x65, 0x5f, 0x63, 0x6f,
  0x6e, 0x76, 0x32, 0x64, 0x5f, 0x32, 0x2f, 0x42, 0x69, 0x61, 0x73, 0x41,
  0x64, 0x64, 0x2f, 0x52, 0x65, 0x61, 0x64, 0x56, 0x61, 0x72, 0x69, 0x61,
  0x62, 0x6c, 0x65, 0x4f, 0x70, 0x3b, 0x73, 0x65, 0x71, 0x75, 0x65, 0x6e,
  0x74, 0x69, 0x61, 0x6c, 0x5f, 0x32, 0x2f, 0x64, 0x65, 0x70, 0x74, 0x68,
  0x77, 0x69, 0x73, 0x65, 0x5f, 0x63, 0x6f, 0x6e, 0x76, 0x32, 0x64, 0x5f,
  0x32, 0x2f, 0x42, 0x69, 0x61, 0x73, 0x41, 0x64, 0x64, 0x00, 0x00, 0x00,
  0x04, 0x00, 0x00, 0x00, 0x01, 0x00, 0x00, 0x00, 0x03, 0x00, 0x00, 0x00,
  0x03, 0x00, 0x00, 0x00, 0x01, 0x00, 0x00, 0x00, 0x00, 0x00, 0x16, 0x00,
  0x18, 0x00, 0x14, 0x00, 0x00, 0x00, 0x10, 0x00, 0x0c, 0x00, 0x08, 0x00,
  0x00, 0x00, 0x00, 0x00, 0x00, 0x00, 0x07, 0x00, 0x16, 0x00, 0x00, 0x00,
  0x00, 0x00, 0x00, 0x01, 0x10, 0x00, 0x00, 0x00, 0x10, 0x00, 0x00, 0x00,
  0x02, 0x00, 0x00, 0x00, 0xec, 0x00, 0x00, 0x00, 0xc8, 0xfe, 0xff, 0xff,
  0xdd, 0x00, 0x00, 0x00, 0x73, 0x65, 0x71, 0x75, 0x65, 0x6e, 0x74, 0x69,
  0x61, 0x6c, 0x5f, 0x32, 0x2f, 0x61, 0x63, 0x74, 0x69, 0x76, 0x61, 0x74,
  0x69, 0x6f, 0x6e, 0x5f, 0x31, 0x32, 0x2f, 0x52, 0x65, 0x6c, 0x75, 0x3b,
  0x73, 0x65, 0x71, 0x75, 0x65, 0x6e, 0x74, 0x69, 0x61, 0x6c, 0x5f, 0x32,
  0x2f, 0x62, 0x61, 0x74, 0x63, 0x68, 0x5f, 0x6e, 0x6f, 0x72, 0x6d, 0x61,
  0x6c, 0x69, 0x7a, 0x61, 0x74, 0x69, 0x6f, 0x6e, 0x5f, 0x31, 0x34, 0x2f,
  0x46, 0x75, 0x73, 0x65, 0x64, 0x42, 0x61, 0x74, 0x63, 0x68, 0x4e, 0x6f,
  0x72, 0x6d, 0x56, 0x33, 0x3b, 0x73, 0x65, 0x71, 0x75, 0x65, 0x6e, 0x74,
  0x69, 0x61, 0x6c, 0x5f, 0x32, 0x2f, 0x64, 0x65, 0x70, 0x74, 0x68, 0x77,
  0x69, 0x73, 0x65, 0x5f, 0x63, 0x6f, 0x6e, 0x76, 0x32, 0x64, 0x5f, 0x32,
  0x2f, 0x64, 0x65, 0x70, 0x74, 0x68, 0x77, 0x69, 0x73, 0x65, 0x3b, 0x73,
  0x65, 0x71, 0x75, 0x65, 0x6e, 0x74, 0x69, 0x61, 0x6c, 0x5f, 0x32, 0x2f,
  0x64, 0x65, 0x70, 0x74, 0x68, 0x77, 0x69, 0x73, 0x65, 0x5f, 0x63, 0x6f,
  0x6e, 0x76, 0x32, 0x64, 0x5f, 0x32, 0x2f, 0x42, 0x69, 0x61, 0x73, 0x41,
  0x64, 0x64, 0x2f, 0x52, 0x65, 0x61, 0x64, 0x56, 0x61, 0x72, 0x69, 0x61,
  0x62, 0x6c, 0x65, 0x4f, 0x70, 0x3b, 0x73, 0x65, 0x71, 0x75, 0x65, 0x6e,
  0x74, 0x69, 0x61, 0x6c, 0x5f, 0x32, 0x2f, 0x64, 0x65, 0x70, 0x74, 0x68,
  0x77, 0x69, 0x73, 0x65, 0x5f, 0x63, 0x6f, 0x6e, 0x76, 0x32, 0x64, 0x5f,
  0x32, 0x2f, 0x42, 0x69, 0x61, 0x73, 0x41, 0x64, 0x64, 0x00, 0x00, 0x00,
  0x01, 0x00, 0x00, 0x00, 0x01, 0x00, 0x00, 0x00, 0x00, 0x00, 0x16, 0x00,
  0x1c, 0x00, 0x18, 0x00, 0x00, 0x00, 0x14, 0x00, 0x10, 0x00, 0x0c, 0x00,
  0x00, 0x00, 0x00, 0x00, 0x08, 0x00, 0x07, 0x00, 0x16, 0x00, 0x00, 0x00,
  0x00, 0x00, 0x00, 0x01, 0x14, 0x00, 0x00, 0x00, 0x28, 0x00, 0x00, 0x00,
  0x28, 0x00, 0x00, 0x00, 0x01, 0x00, 0x00, 0x00, 0x50, 0x00, 0x00, 0x00,
  0x04, 0x00, 0x00, 0x00, 0xff, 0xff, 0xff, 0xff, 0x30, 0x00, 0x00, 0x00,
  0x30, 0x00, 0x00, 0x00, 0x01, 0x00, 0x00, 0x00, 0x04, 0x00, 0x04, 0x00,
  0x04, 0x00, 0x00, 0x00, 0x2a, 0x00, 0x00, 0x00, 0x73, 0x65, 0x72, 0x76,
  0x69, 0x6e, 0x67, 0x5f, 0x64, 0x65, 0x66, 0x61, 0x75, 0x6c, 0x74, 0x5f,
  0x64, 0x65, 0x70, 0x74, 0x68, 0x77, 0x69, 0x73, 0x65, 0x5f, 0x63, 0x6f,
  0x6e, 0x76, 0x32, 0x64, 0x5f, 0x32, 0x5f, 0x69, 0x6e, 0x70, 0x75, 0x74,
  0x3a, 0x30, 0x00, 0x00, 0x04, 0x00, 0x00, 0x00, 0x01, 0x00, 0x00, 0x00,
  0x30, 0x00, 0x00, 0x00, 0x30, 0x00, 0x00, 0x00, 0x01, 0x00, 0x00, 0x00,
  0x06, 0x00, 0x00, 0x00, 0x60, 0x00, 0x00, 0x00, 0x44, 0x00, 0x00, 0x00,
  0x34, 0x00, 0x00, 0x00, 0x24, 0x00, 0x00, 0x00, 0x14, 0x00, 0x00, 0x00,
  0x04, 0x00, 0x00, 0x00, 0xc4, 0xff, 0xff, 0xff, 0x19, 0x00, 0x00, 0x00,
  0x00, 0x00, 0x00, 0x19, 0xd0, 0xff, 0xff, 0xff, 0x09, 0x00, 0x00, 0x00,
  0x00, 0x00, 0x00, 0x09, 0xdc, 0xff, 0xff, 0xff, 0x16, 0x00, 0x00, 0x00,
  0x00, 0x00, 0x00, 0x16, 0xe8, 0xff, 0xff, 0xff, 0x01, 0x00, 0x00, 0x00,
  0x00, 0x00, 0x00, 0x01, 0xf4, 0xff, 0xff, 0xff, 0x03, 0x00, 0x00, 0x00,
  0x00, 0x00, 0x00, 0x03, 0x0c, 0x00, 0x0c, 0x00, 0x0b, 0x00, 0x00, 0x00,
  0x00, 0x00, 0x04, 0x00, 0x0c, 0x00, 0x00, 0x00, 0x04, 0x00, 0x00, 0x00,
  0x00, 0x00, 0x00, 0x04

};
